<unk>	0
<s>	0
</s>	0
▁s	-0
in	-1
▁b	-2
ing	-3
▁p	-4
▁t	-5
▁c	-6
er	-7
an	-8
ar	-9
re	-10
le	-11
▁w	-12
at	-13
it	-14
ro	-15
en	-16
▁f	-17
al	-18
▁m	-19
▁g	-20
la	-21
ra	-22
es	-23
▁st	-24
ed	-25
on	-26
▁d	-27
▁h	-28
or	-29
ck	-30
ou	-31
▁l	-32
ding	-33
om	-34
ow	-35
et	-36
op	-37
ch	-38
ri	-39
all	-40
el	-41
▁n	-42
ir	-43
as	-44
▁man	-45
ge	-46
ot	-47
ol	-48
ite	-49
is	-50
il	-51
lay	-52
ic	-53
ers	-54
▁re	-55
ting	-56
▁ne	-57
oo	-58
▁sit	-59
▁sk	-60
▁wh	-61
▁a	-62
eb	-63
▁white	-64
ig	-65
▁tw	-66
ard	-67
ss	-68
▁sh	-69
▁two	-70
▁stan	-71
ab	-72
id	-73
▁e	-74
un	-75
▁tra	-76
ea	-77
us	-78
oun	-79
▁play	-80
▁v	-81
oard	-82
ur	-83
▁k	-84
▁sitting	-85
▁y	-86
▁pe	-87
lo	-88
▁standing	-89
▁ro	-90
king	-91
ff	-92
ts	-93
ople	-94
▁people	-95
able	-96
▁wom	-97
▁stre	-98
▁ch	-99
ide	-100
ver	-101
▁street	-102
og	-103
▁lar	-104
▁par	-105
▁large	-106
▁pl	-107
▁gra	-108
xt	-109
▁fi	-110
▁ri	-111
ate	-112
ion	-113
up	-114
▁next	-115
▁woman	-116
ood	-117
▁ar	-118
ce	-119
▁sm	-120
um	-121
▁bat	-122
▁table	-123
▁red	-124
ad	-125
am	-126
se	-127
▁bo	-128
ear	-129
ue	-130
ell	-131
▁hol	-132
▁bla	-133
ter	-134
▁black	-135
▁bl	-136
row	-137
▁fl	-138
▁car	-139
▁bas	-140
ron	-141
▁cat	-142
▁gro	-143
ack	-144
ign	-145
▁se	-146
▁pi	-147
▁ten	-148
▁park	-149
nis	-150
ure	-151
ee	-152
▁small	-153
▁tennis	-154
ul	-155
and	-156
eld	-157
▁pers	-158
▁sign	-159
reen	-160
▁person	-161
▁near	-162
ph	-163
▁ph	-164
▁holding	-165
▁wat	-166
▁blue	-167
ront	-168
ind	-169
▁clo	-170
▁grass	-171
ree	-172
eball	-173
▁train	-174
ay	-175
one	-176
▁dog	-177
▁baseball	-178
ant	-179
▁front	-180
▁group	-181
▁ra	-182
▁bus	-183
▁field	-184
itch	-185
igh	-186
room	-187
oung	-188
ke	-189
ile	-190
▁to	-191
▁air	-192
▁young	-193
▁top	-194
▁sn	-195
▁th	-196
▁green	-197
ta	-198
▁plate	-199
▁bu	-200
ying	-201
▁player	-202
und	-203
ent	-204
ct	-205
ve	-206
▁snow	-207
▁bath	-208
▁ele	-209
▁sur	-210
▁j	-211
ink	-212
▁la	-213
▁wal	-214
▁ski	-215
▁ball	-216
▁skat	-217
board	-218
▁in	-219
▁com	-220
▁room	-221
▁riding	-222
yc	-223
▁area	-224
▁water	-225
▁bathroom	-226
ie	-227
ru	-228
▁buil	-229
▁skateb	-230
▁dis	-231
▁z	-232
▁po	-233
▁back	-234
▁gam	-235
ds	-236
ut	-237
▁building	-238
▁o	-239
▁co	-240
ellow	-241
▁surf	-242
▁yellow	-243
▁wood	-244
▁cou	-245
▁game	-246
im	-247
zz	-248
ycle	-249
▁side	-250
▁skateboard	-251
▁bed	-252
itchen	-253
▁kitchen	-254
▁playing	-255
▁eleph	-256
air	-257
▁bea	-258
▁hor	-259
▁pizz	-260
veral	-261
▁several	-262
▁gi	-263
ving	-264
st	-265
umb	-266
pt	-267
irt	-268
ity	-269
▁con	-270
▁mot	-271
▁li	-272
ore	-273
▁de	-274
▁beach	-275
ight	-276
▁gira	-277
▁or	-278
rown	-279
▁pizza	-280
▁wear	-281
▁toile	-282
▁giraff	-283
▁phot	-284
▁ben	-285
age	-286
▁comp	-287
▁brown	-288
▁toilet	-289
▁en	-290
her	-291
▁fri	-292
▁loo	-293
▁show	-294
▁walking	-295
round	-296
▁wearing	-297
ong	-298
▁food	-299
ebra	-300
▁three	-301
▁flying	-302
▁parked	-303
tain	-304
▁clock	-305
▁zebra	-306
ple	-307
▁eat	-308
ture	-309
▁le	-310
▁motor	-311
▁ca	-312
▁sc	-313
▁wind	-314
▁pic	-315
ane	-316
▁city	-317
cc	-318
ild	-319
▁pas	-320
iew	-321
▁tow	-322
▁bear	-323
lass	-324
ange	-325
▁view	-326
▁ou	-327
▁disp	-328
▁r	-329
▁bench	-330
▁window	-331
rel	-332
▁sl	-333
dy	-334
▁display	-335
▁sits	-336
▁picture	-337
ger	-338
▁al	-339
ine	-340
▁be	-341
old	-342
ill	-343
▁ma	-344
▁umb	-345
rella	-346
▁motorc	-347
▁umbrella	-348
▁child	-349
▁sw	-350
ground	-351
▁board	-352
cks	-353
▁des	-354
way	-355
ffic	-356
▁men	-357
▁su	-358
▁airp	-359
▁ve	-360
▁wall	-361
led	-362
ks	-363
oor	-364
▁dou	-365
▁sink	-366
▁wooden	-367
▁sp	-368
▁op	-369
▁bir	-370
▁col	-371
▁sand	-372
▁glass	-373
▁motorcycle	-374
orm	-375
▁road	-376
sb	-377
▁ad	-378
▁boy	-379
▁fire	-380
▁eating	-381
ap	-382
▁frisb	-383
ump	-384
▁stop	-385
▁orange	-386
gh	-387
eat	-388
ptop	-389
ction	-390
▁laptop	-391
eep	-392
▁bri	-393
▁background	-394
▁an	-395
▁frisbee	-396
ase	-397
ation	-398
ag	-399
▁open	-400
▁elephant	-401
ants	-402
▁tree	-403
▁photo	-404
▁cow	-405
ort	-406
▁moun	-407
▁sky	-408
uter	-409
▁old	-410
▁close	-411
▁living	-412
ross	-413
tle	-414
▁wi	-415
▁horse	-416
▁ban	-417
▁phone	-418
▁ap	-419
▁shirt	-420
▁looking	-421
▁boat	-422
▁cake	-423
▁suit	-424
▁so	-425
▁wa	-426
side	-427
em	-428
▁fen	-429
▁one	-430
ry	-431
ses	-432
▁cl	-433
▁flow	-434
▁kite	-435
▁chair	-436
▁swing	-437
qu	-438
irl	-439
oth	-440
▁girl	-441
form	-442
▁lay	-443
▁cell	-444
▁computer	-445
ble	-446
▁tre	-447
▁hand	-448
▁banan	-449
▁giraffe	-450
▁sheep	-451
▁us	-452
▁bow	-453
▁flo	-454
▁cour	-455
▁many	-456
ner	-457
ches	-458
▁pre	-459
▁cover	-460
▁te	-461
▁desk	-462
▁tru	-463
▁trees	-464
▁surfboard	-465
ound	-466
▁pass	-467
▁along	-468
▁hit	-469
▁bird	-470
▁coun	-471
get	-472
ice	-473
les	-474
▁ta	-475
▁rid	-476
▁court	-477
▁grassy	-478
▁traffic	-479
oli	-480
par	-481
▁di	-482
▁cut	-483
▁pro	-484
ead	-485
▁run	-486
▁mountain	-487
yd	-488
ang	-489
▁bro	-490
▁covered	-491
wi	-492
ari	-493
ush	-494
▁res	-495
▁around	-496
rant	-497
▁out	-498
▁veget	-499
▁laying	-500
ly	-501
▁hyd	-502
▁bowl	-503
▁jump	-504
▁light	-505
▁tower	-506
ous	-507
▁box	-508
▁hydrant	-509
▁wii	-510
▁cars	-511
▁truck	-512
▁sandwi	-513
▁stands	-514
▁vegetable	-515
ey	-516
clo	-517
ket	-518
ult	-519
ull	-520
▁bi	-521
alk	-522
our	-523
clos	-524
▁airpl	-525
▁brocc	-526
▁elephants	-527
ain	-528
ves	-529
▁che	-530
▁rack	-531
▁broccoli	-532
ped	-533
▁vari	-534
▁enclos	-535
ated	-536
hind	-537
ouse	-538
▁hill	-539
▁pitch	-540
▁behind	-541
▁zebras	-542
▁giraffes	-543
▁sa	-544
walk	-545
▁cor	-546
▁bic	-547
▁floor	-548
▁double	-549
▁prepar	-550
ub	-551
ted	-552
cker	-553
ment	-554
▁bab	-555
▁hot	-556
▁per	-557
▁graz	-558
▁inside	-559
▁un	-560
▁sun	-561
▁baby	-562
▁skate	-563
▁vegetables	-564
ren	-565
▁pink	-566
▁fence	-567
▁stand	-568
▁sandwich	-569
gg	-570
ess	-571
ets	-572
vel	-573
▁plane	-574
▁women	-575
ator	-576
▁kit	-577
▁pie	-578
▁ref	-579
▁bicycle	-580
▁mar	-581
▁tri	-582
▁enclosure	-583
▁skateboarder	-584
ook	-585
▁crow	-586
▁cross	-587
▁sidewalk	-588
cor	-589
ror	-590
uts	-591
ters	-592
▁mir	-593
▁crowd	-594
▁mirror	-595
ip	-596
ruit	-597
▁pla	-598
▁cont	-599
▁read	-600
▁passen	-601
ial	-602
ick	-603
kes	-604
ress	-605
▁lit	-606
▁head	-607
▁mo	-608
ching	-609
▁flowers	-610
▁airplane	-611
▁snowboard	-612
est	-613
ome	-614
▁im	-615
eddy	-616
▁slop	-617
▁vase	-618
▁fruit	-619
▁teddy	-620
▁skiing	-621
ese	-622
▁decor	-623
▁bananas	-624
▁station	-625
▁displayed	-626
▁br	-627
▁outd	-628
▁skis	-629
▁parking	-630
ade	-631
ven	-632
▁day	-633
▁sto	-634
▁outdoor	-635
mp	-636
ud	-637
ies	-638
▁at	-639
▁hat	-640
▁met	-641
rol	-642
ning	-643
ogra	-644
▁key	-645
▁outs	-646
ms	-647
ping	-648
▁cab	-649
ograph	-650
▁photograph	-651
ork	-652
ten	-653
▁cows	-654
▁kites	-655
▁refri	-656
▁horses	-657
▁tracks	-658
ans	-659
ched	-660
▁lot	-661
▁pos	-662
▁tog	-663
ether	-664
▁diff	-665
▁image	-666
gerator	-667
▁decker	-668
▁outside	-669
oes	-670
▁ser	-671
▁long	-672
etting	-673
▁slope	-674
▁corner	-675
▁travel	-676
▁together	-677
▁refrigerator	-678
ght	-679
▁adult	-680
▁color	-681
▁racket	-682
▁various	-683
th	-684
dge	-685
▁bot	-686
▁fil	-687
iling	-688
▁tall	-689
▁signs	-690
ac	-691
cl	-692
ored	-693
▁cur	-694
▁don	-695
▁her	-696
erent	-697
▁fore	-698
▁four	-699
▁high	-700
▁plat	-701
▁different	-702
▁passenger	-703
▁as	-704
ccer	-705
▁tele	-706
ection	-707
▁cabin	-708
▁couch	-709
▁soccer	-710
▁control	-711
▁children	-712
▁keyboard	-713
▁pair	-714
▁carro	-715
▁cle	-716
ision	-717
▁bike	-718
▁apple	-719
▁inters	-720
▁airport	-721
▁grazing	-722
▁swinging	-723
▁umbrellas	-724
if	-725
ace	-726
▁dri	-727
other	-728
▁anim	-729
▁male	-730
▁dress	-731
▁night	-732
▁shown	-733
▁skier	-734
▁cheese	-735
▁filled	-736
▁counter	-737
▁players	-738
▁bag	-739
▁bes	-740
▁cam	-741
▁din	-742
▁tile	-743
▁wave	-744
vision	-745
▁throw	-746
▁using	-747
▁cutting	-748
▁glasses	-749
▁intersection	-750
sh	-751
der	-752
era	-753
▁lo	-754
▁pot	-755
▁holds	-756
▁another	-757
▁television	-758
als	-759
ced	-760
▁go	-761
▁on	-762
▁ite	-763
▁zoo	-764
▁door	-765
▁home	-766
▁catch	-767
uff	-768
▁mid	-769
▁rail	-770
▁suitc	-771
▁beside	-772
▁perform	-773
uce	-774
ugg	-775
cean	-776
ffee	-777
▁pat	-778
▁dirt	-779
▁pain	-780
▁ocean	-781
▁track	-782
▁contain	-783
ast	-784
ish	-785
mer	-786
▁ac	-787
▁bar	-788
▁jet	-789
▁tie	-790
▁herd	-791
▁piece	-792
▁stove	-793
▁camera	-794
▁coffee	-795
pe	-796
ors	-797
▁mat	-798
▁dough	-799
▁items	-800
▁river	-801
▁little	-802
▁dr	-803
▁app	-804
▁big	-805
▁bun	-806
▁cup	-807
▁incl	-808
▁elect	-809
▁looks	-810
▁snowy	-811
▁batter	-812
▁couple	-813
▁jumping	-814
iz	-815
ale	-816
ive	-817
▁pap	-818
▁clou	-819
▁seat	-820
▁walk	-821
▁offic	-822
▁ready	-823
▁store	-824
▁ground	-825
▁runway	-826
▁skiers	-827
▁carrots	-828
▁colored	-829
eel	-830
ful	-831
hic	-832
ian	-833
▁kn	-834
▁tal	-835
▁boats	-836
▁vehic	-837
▁doughn	-838
try	-839
▁hel	-840
▁pol	-841
▁across	-842
▁bottle	-843
▁motorcycles	-844
ft	-845
ash	-846
ces	-847
elf	-848
ock	-849
▁pur	-850
▁hang	-851
▁jack	-852
▁meat	-853
▁scen	-854
▁seen	-855
▁brick	-856
▁smiling	-857
urn	-858
▁bre	-859
▁lin	-860
▁rac	-861
rying	-862
▁lugg	-863
▁rides	-864
▁luggage	-865
▁talking	-866
▁buildings	-867
ave	-868
eed	-869
outh	-870
▁eng	-871
▁mon	-872
▁screen	-873
ark	-874
lee	-875
ases	-876
▁ind	-877
ather	-878
▁oven	-879
▁stri	-880
arding	-881
▁trick	-882
▁pitcher	-883
iss	-884
ric	-885
▁tv	-886
taur	-887
▁fem	-888
▁rea	-889
▁uni	-890
▁book	-891
▁dogs	-892
▁rain	-893
▁paper	-894
▁bright	-895
▁compet	-896
▁market	-897
▁posing	-898
▁restaur	-899
▁colorful	-900
▁preparing	-901
▁rem	-902
▁full	-903
▁ramp	-904
▁wine	-905
▁birds	-906
▁house	-907
▁stuff	-908
▁controll	-909
▁suitcase	-910
▁decorated	-911
▁performing	-912
ak	-913
ire	-914
ond	-915
▁me	-916
iting	-917
▁pole	-918
▁bears	-919
▁cloth	-920
▁banana	-921
▁bridge	-922
▁jacket	-923
▁shower	-924
▁taking	-925
▁stuffed	-926
▁traveling	-927
▁restaurant	-928
br	-929
ust	-930
▁em	-931
▁say	-932
atoes	-933
▁purple	-934
▁uniform	-935
oc	-936
▁set	-937
ition	-938
▁scene	-939
▁female	-940
▁country	-941
▁running	-942
alf	-943
dle	-944
eath	-945
▁lea	-946
▁ped	-947
▁bran	-948
▁dark	-949
▁dish	-950
▁over	-951
▁clear	-952
▁mouth	-953
▁tooth	-954
▁driving	-955
▁ex	-956
ones	-957
▁mic	-958
▁mil	-959
▁row	-960
umber	-961
▁helm	-962
▁part	-963
▁pull	-964
▁shot	-965
▁shelf	-966
▁shows	-967
▁slice	-968
▁chairs	-969
▁donuts	-970
▁plates	-971
▁surround	-972
arm	-973
ents	-974
ines	-975
orts	-976
▁fla	-977
▁tom	-978
▁toy	-979
ights	-980
▁shop	-981
▁stat	-982
▁mouse	-983
▁walls	-984
▁cloudy	-985
▁fenced	-986
▁surfer	-987
▁surrounded	-988
te	-989
are	-990
▁ur	-991
▁sil	-992
▁atta	-993
▁made	-994
▁slee	-995
issors	-996
rowave	-997
▁chick	-998
▁forest	-999
▁closeup	-1000
▁showing	-1001
▁cabinets	-1002
▁carrying	-1003
▁scissors	-1004
▁microwave	-1005
eth	-1006
pty	-1007
▁ev	-1008
ance	-1009
anes	-1010
less	-1011
▁dock	-1012
▁like	-1013
▁drink	-1014
▁empty	-1015
▁monit	-1016
▁sauce	-1017
▁gather	-1018
▁chicken	-1019
▁hanging	-1020
▁attached	-1021
lic	-1022
▁tr	-1023
ally	-1024
▁body	-1025
▁half	-1026
▁past	-1027
▁prof	-1028
▁says	-1029
▁hands	-1030
▁older	-1031
▁number	-1032
▁pedest	-1033
▁bedroom	-1034
▁watches	-1035
de	-1036
oon	-1037
per	-1038
ved	-1039
▁wr	-1040
ices	-1041
ling	-1042
ooks	-1043
▁fre	-1044
▁gre	-1045
▁und	-1046
ional	-1047
▁busy	-1048
▁feat	-1049
▁gray	-1050
▁brush	-1051
▁buses	-1052
▁going	-1053
▁lined	-1054
▁lying	-1055
▁walks	-1056
▁animal	-1057
▁fruits	-1058
▁hitting	-1059
▁vehicle	-1060
▁throwing	-1061
▁doughnuts	-1062
gs	-1063
ary	-1064
ife	-1065
ime	-1066
▁ty	-1067
▁new	-1068
▁squ	-1069
inten	-1070
▁face	-1071
▁path	-1072
ooking	-1073
▁event	-1074
▁remot	-1075
▁apples	-1076
▁engine	-1077
▁flower	-1078
▁helmet	-1079
▁painted	-1080
▁windows	-1081
bo	-1082
ern	-1083
ety	-1084
▁fo	-1085
▁ho	-1086
quet	-1087
ries	-1088
ular	-1089
ures	-1090
▁can	-1091
▁pen	-1092
▁tan	-1093
▁wor	-1094
▁tray	-1095
▁yard	-1096
▁smile	-1097
▁takes	-1098
▁lights	-1099
▁silver	-1100
essional	-1101
▁catcher	-1102
▁mountains	-1103
▁professional	-1104
by	-1105
do	-1106
ia	-1107
ect	-1108
ist	-1109
raw	-1110
cial	-1111
▁art	-1112
▁kid	-1113
▁pan	-1114
▁pub	-1115
anges	-1116
olate	-1117
▁beds	-1118
▁lake	-1119
▁pack	-1120
▁pose	-1121
▁knife	-1122
▁metal	-1123
▁branch	-1124
▁dinner	-1125
▁office	-1126
▁oranges	-1127
▁setting	-1128
▁pedestri	-1129
▁pictures	-1130
bs	-1131
ps	-1132
ram	-1133
ton	-1134
ings	-1135
ized	-1136
▁equ	-1137
▁sal	-1138
brush	-1139
▁airl	-1140
▁birt	-1141
▁choc	-1142
▁grey	-1143
▁rock	-1144
▁work	-1145
▁poses	-1146
▁tiled	-1147
▁basket	-1148
▁includ	-1149
▁public	-1150
▁shorts	-1151
▁statue	-1152
▁dressed	-1153
▁surfing	-1154
▁electric	-1155
▁prepares	-1156
▁chocolate	-1157
hd	-1158
iv	-1159
ny	-1160
ats	-1161
ina	-1162
pes	-1163
▁gu	-1164
hday	-1165
ideo	-1166
ults	-1167
▁oth	-1168
▁wet	-1169
anket	-1170
ident	-1171
illow	-1172
ronic	-1173
▁bread	-1174
▁fries	-1175
▁meter	-1176
▁stick	-1177
▁video	-1178
▁adults	-1179
▁dining	-1180
▁middle	-1181
▁pillow	-1182
▁remote	-1183
▁toward	-1184
▁animals	-1185
▁blanket	-1186
▁getting	-1187
▁birthday	-1188
▁toothbrush	-1189
art	-1190
ato	-1191
eam	-1192
its	-1193
▁am	-1194
▁ed	-1195
▁arr	-1196
▁tub	-1197
▁van	-1198
▁cats	-1199
▁fish	-1200
▁mult	-1201
▁rest	-1202
▁wire	-1203
▁books	-1204
▁hotel	-1205
▁teeth	-1206
▁vases	-1207
erneath	-1208
▁commer	-1209
▁others	-1210
▁cabinet	-1211
▁stopped	-1212
▁crossing	-1213
▁platform	-1214
▁containing	-1215
▁electronic	-1216
▁underneath	-1217
▁snowboarder	-1218
ns	-1219
to	-1220
ape	-1221
dern	-1222
▁ass	-1223
ating	-1224
tered	-1225
▁cart	-1226
▁edge	-1227
▁feed	-1228
▁line	-1229
▁rice	-1230
▁sing	-1231
▁bikes	-1232
▁clean	-1233
▁match	-1234
▁shore	-1235
▁stain	-1236
▁watch	-1237
▁wheel	-1238
intendo	-1239
▁modern	-1240
▁topped	-1241
▁passing	-1242
▁pulling	-1243
▁variety	-1244
▁nintendo	-1245
▁commercial	-1246
▁controller	-1247
io	-1248
ins	-1249
pic	-1250
upp	-1251
ycl	-1252
▁cr	-1253
▁du	-1254
▁it	-1255
▁pa	-1256
stic	-1257
vert	-1258
▁cre	-1259
▁dry	-1260
▁end	-1261
▁ste	-1262
▁wed	-1263
uding	-1264
▁appl	-1265
▁meal	-1266
▁onto	-1267
▁outf	-1268
▁pick	-1269
▁race	-1270
▁ride	-1271
▁fresh	-1272
▁reads	-1273
▁salad	-1274
▁towel	-1275
▁assort	-1276
▁boards	-1277
▁cattle	-1278
▁comput	-1279
▁design	-1280
▁police	-1281
▁crowded	-1282
▁curtain	-1283
▁monitor	-1284
▁racquet	-1285
▁potatoes	-1286
▁sleeping	-1287
▁watching	-1288
▁including	-1289
▁stainless	-1290
ban	-1291
ert	-1292
iti	-1293
orn	-1294
que	-1295
▁ey	-1296
pack	-1297
stru	-1298
▁fly	-1299
▁hea	-1300
▁mus	-1301
▁sof	-1302
▁way	-1303
ative	-1304
phone	-1305
urnit	-1306
▁hair	-1307
▁lean	-1308
▁look	-1309
▁boxes	-1310
▁bunch	-1311
▁carri	-1312
▁donut	-1313
▁equip	-1314
▁rocks	-1315
▁shoes	-1316
▁trail	-1317
▁advert	-1318
▁furnit	-1319
▁indoor	-1320
▁making	-1321
▁pizzas	-1322
▁wooded	-1323
▁plastic	-1324
▁reading	-1325
▁waiting	-1326
ily	-1327
red	-1328
gers	-1329
inal	-1330
ions	-1331
rist	-1332
▁att	-1333
▁low	-1334
▁ump	-1335
▁win	-1336
armac	-1337
ement	-1338
itten	-1339
▁bush	-1340
▁clos	-1341
▁disc	-1342
▁poin	-1343
▁post	-1344
▁used	-1345
▁inter	-1346
▁jumps	-1347
▁plays	-1348
▁sandy	-1349
▁sunny	-1350
oarding	-1351
▁pieces	-1352
▁smiles	-1353
▁tarmac	-1354
▁umpire	-1355
▁applian	-1356
▁roadway	-1357
▁wedding	-1358
▁written	-1359
▁advertis	-1360
▁backpack	-1361
▁gathered	-1362
▁painting	-1363
▁computers	-1364
▁furniture	-1365
▁surfboards	-1366
▁skateboarding	-1367
ec	-1368
ib	-1369
jo	-1370
os	-1371
uc	-1372
ber	-1373
len	-1374
ool	-1375
pla	-1376
top	-1377
ages	-1378
ists	-1379
▁bak	-1380
▁sub	-1381
ffiti	-1382
icing	-1383
iding	-1384
itary	-1385
▁cand	-1386
▁comm	-1387
▁dire	-1388
▁enjo	-1389
▁flag	-1390
▁fork	-1391
▁gear	-1392
▁land	-1393
▁neck	-1394
▁sale	-1395
▁star	-1396
anding	-1397
▁serve	-1398
▁stall	-1399
▁steel	-1400
▁action	-1401
▁leaves	-1402
▁slices	-1403
▁square	-1404
▁cooking	-1405
▁leaning	-1406
▁pasture	-1407
▁perched	-1408
▁graffiti	-1409
▁military	-1410
fe	-1411
tt	-1412
gle	-1413
ley	-1414
low	-1415
own	-1416
unk	-1417
▁qu	-1418
ract	-1419
ulpt	-1420
▁ant	-1421
▁cal	-1422
▁gri	-1423
▁sch	-1424
▁sty	-1425
▁ter	-1426
arden	-1427
▁base	-1428
▁case	-1429
▁conc	-1430
▁form	-1431
▁lamp	-1432
▁sofa	-1433
▁time	-1434
▁multi	-1435
▁poles	-1436
▁right	-1437
▁urban	-1438
▁garden	-1439
▁plants	-1440
▁sculpt	-1441
▁swings	-1442
▁tables	-1443
▁boarder	-1444
▁striped	-1445
▁catching	-1446
▁doughnut	-1447
▁features	-1448
▁direction	-1449
▁appliances	-1450
▁competition	-1451
ug	-1452
com	-1453
eet	-1454
end	-1455
ence	-1456
ican	-1457
land	-1458
▁cap	-1459
▁cub	-1460
▁egg	-1461
▁glo	-1462
▁ham	-1463
▁pad	-1464
erial	-1465
glass	-1466
▁amer	-1467
▁bags	-1468
▁bott	-1469
▁cook	-1470
▁gate	-1471
▁lots	-1472
▁prop	-1473
▁well	-1474
▁wild	-1475
▁among	-1476
▁graze	-1477
▁rider	-1478
▁stack	-1479
▁docked	-1480
▁nearby	-1481
▁single	-1482
▁tomato	-1483
▁tricks	-1484
idential	-1485
▁landing	-1486
▁persons	-1487
struction	-1488
▁multiple	-1489
▁tomatoes	-1490
▁vehicles	-1491
▁airplanes	-1492
▁cellphone	-1493
▁equipment	-1494
▁assortment	-1495
▁decorative	-1496
▁pedestrian	-1497
▁controllers	-1498
▁residential	-1499
of	-1500
sc	-1501
vy	-1502
ied	-1503
ons	-1504
head	-1505
iner	-1506
line	-1507
read	-1508
▁arm	-1509
▁bal	-1510
▁cro	-1511
▁ear	-1512
▁fam	-1513
▁fig	-1514
▁gar	-1515
▁mod	-1516
▁pep	-1517
▁rol	-1518
▁str	-1519
ondon	-1520
place	-1521
rench	-1522
▁blur	-1523
▁boys	-1524
▁curb	-1525
▁drin	-1526
▁five	-1527
▁fram	-1528
▁pier	-1529
▁prod	-1530
▁shad	-1531
▁some	-1532
▁swim	-1533
▁team	-1534
▁york	-1535
▁fried	-1536
▁speed	-1537
▁stret	-1538
glasses	-1539
yclists	-1540
▁closed	-1541
▁london	-1542
▁moving	-1543
▁photos	-1544
▁racing	-1545
▁signal	-1546
▁trains	-1547
▁highway	-1548
▁laptops	-1549
▁mounted	-1550
▁pillows	-1551
▁topping	-1552
▁carriage	-1553
▁drinking	-1554
▁passengers	-1555
▁sunglasses	-1556
bb	-1557
ens	-1558
ery	-1559
ini	-1560
ior	-1561
oot	-1562
out	-1563
ugh	-1564
▁up	-1565
aped	-1566
ball	-1567
ears	-1568
ical	-1569
rete	-1570
road	-1571
tern	-1572
vers	-1573
▁acc	-1574
▁blo	-1575
▁but	-1576
▁cen	-1577
▁hay	-1578
▁pin	-1579
▁ret	-1580
▁vin	-1581
house	-1582
ially	-1583
▁coat	-1584
▁dist	-1585
▁held	-1586
▁lady	-1587
▁laid	-1588
▁legs	-1589
▁lush	-1590
▁pool	-1591
▁stud	-1592
▁stun	-1593
▁supp	-1594
▁tour	-1595
▁turn	-1596
▁wash	-1597
▁baked	-1598
▁girls	-1599
▁horns	-1600
▁plant	-1601
▁pract	-1602
▁space	-1603
▁stone	-1604
▁style	-1605
▁waves	-1606
▁bottom	-1607
▁center	-1608
▁french	-1609
▁placed	-1610
▁school	-1611
▁served	-1612
▁american	-1613
▁bicycles	-1614
▁boarding	-1615
▁concrete	-1616
▁enjoying	-1617
▁outdoors	-1618
▁railroad	-1619
▁sculpture	-1620
▁foreground	-1621
od	-1622
bow	-1623
ips	-1624
man	-1625
nic	-1626
rap	-1627
rin	-1628
usk	-1629
▁ab	-1630
▁ob	-1631
tage	-1632
unch	-1633
ural	-1634
urch	-1635
▁cas	-1636
▁del	-1637
▁log	-1638
▁mud	-1639
▁sea	-1640
▁tou	-1641
▁use	-1642
▁war	-1643
iness	-1644
▁down	-1645
▁draw	-1646
▁eats	-1647
▁gold	-1648
▁inst	-1649
▁kids	-1650
▁left	-1651
▁mush	-1652
▁roof	-1653
▁sail	-1654
▁wide	-1655
▁bever	-1656
▁foods	-1657
▁mound	-1658
▁pants	-1659
▁place	-1660
▁round	-1661
▁spoon	-1662
▁trunk	-1663
▁types	-1664
artment	-1665
▁blurry	-1666
▁church	-1667
▁family	-1668
▁outfit	-1669
▁picnic	-1670
angement	-1671
▁petting	-1672
▁serving	-1673
▁surfers	-1674
▁towards	-1675
▁vintage	-1676
▁brushing	-1677
▁business	-1678
▁commuter	-1679
▁distance	-1680
▁includes	-1681
▁mushroom	-1682
▁overhead	-1683
▁alongside	-1684
▁container	-1685
▁fireplace	-1686
▁suitcases	-1687
▁displaying	-1688
▁arrangement	-1689
▁construction	-1690
dd	-1691
go	-1692
ach	-1693
dog	-1694
eak	-1695
ely	-1696
emp	-1697
irc	-1698
ken	-1699
ler	-1700
oke	-1701
ral	-1702
seb	-1703
set	-1704
▁hu	-1705
bled	-1706
cess	-1707
ides	-1708
lage	-1709
raft	-1710
ward	-1711
▁dam	-1712
▁exp	-1713
▁eye	-1714
▁fac	-1715
▁mag	-1716
▁obj	-1717
▁orn	-1718
▁pal	-1719
▁pri	-1720
▁pul	-1721
▁tur	-1722
arrow	-1723
comot	-1724
light	-1725
minal	-1726
urger	-1727
▁beer	-1728
▁circ	-1729
▁clay	-1730
▁clut	-1731
▁cons	-1732
▁even	-1733
▁flat	-1734
▁flip	-1735
▁foot	-1736
▁kind	-1737
▁mess	-1738
▁nood	-1739
▁wrap	-1740
phones	-1741
seback	-1742
▁asian	-1743
▁dirty	-1744
▁doors	-1745
▁flies	-1746
▁makes	-1747
▁overl	-1748
▁plain	-1749
▁polar	-1750
▁range	-1751
▁sized	-1752
▁straw	-1753
▁trans	-1754
▁woods	-1755
▁bushes	-1756
▁hotdog	-1757
▁packed	-1758
▁parade	-1759
▁phones	-1760
▁riders	-1761
▁sunset	-1762
▁throws	-1763
▁trucks	-1764
▁vanity	-1765
▁beneath	-1766
▁couches	-1767
▁locomot	-1768
▁resting	-1769
▁surface	-1770
▁airlines	-1771
▁clothing	-1772
▁sticking	-1773
▁terminal	-1774
▁horseback	-1775
▁partially	-1776
az	-1777
co	-1778
ix	-1779
oe	-1780
ake	-1781
ere	-1782
eum	-1783
ige	-1784
nel	-1785
ony	-1786
ots	-1787
tub	-1788
ual	-1789
▁he	-1790
▁ru	-1791
▁sy	-1792
icks	-1793
ield	-1794
ious	-1795
ique	-1796
iron	-1797
ital	-1798
orks	-1799
pers	-1800
time	-1801
▁fur	-1802
▁har	-1803
▁obs	-1804
aking	-1805
front	-1806
ument	-1807
uring	-1808
▁conn	-1809
▁corn	-1810
▁hats	-1811
▁lies	-1812
▁lone	-1813
▁milk	-1814
▁nice	-1815
▁pile	-1816
▁take	-1817
▁unit	-1818
ashion	-1819
▁appro	-1820
▁beige	-1821
▁break	-1822
▁cream	-1823
▁games	-1824
▁ledge	-1825
▁model	-1826
▁rainy	-1827
▁steep	-1828
▁stunt	-1829
▁suits	-1830
▁swimm	-1831
lection	-1832
▁carrot	-1833
▁coming	-1834
▁drinks	-1835
▁flight	-1836
▁floors	-1837
▁greens	-1838
▁marina	-1839
▁museum	-1840
▁narrow	-1841
▁onions	-1842
▁planes	-1843
▁shaped	-1844
▁winter	-1845
▁bathtub	-1846
▁benches	-1847
▁bunches	-1848
▁clothes	-1849
▁feeding	-1850
▁include	-1851
▁rainbow	-1852
▁sliding	-1853
▁performs	-1854
▁personal	-1855
▁toppings	-1856
▁uniforms	-1857
▁cluttered	-1858
▁locomotive	-1859
▁sandwiches	-1860
ws	-1861
ars	-1862
bor	-1863
hib	-1864
lit	-1865
mas	-1866
ode	-1867
uit	-1868
▁ce	-1869
▁ha	-1870
aged	-1871
ates	-1872
bble	-1873
boat	-1874
ctor	-1875
ered	-1876
iced	-1877
ised	-1878
umin	-1879
vice	-1880
wing	-1881
▁aut	-1882
▁cla	-1883
▁lab	-1884
▁mas	-1885
▁not	-1886
▁pow	-1887
▁siz	-1888
▁spr	-1889
▁tag	-1890
anged	-1891
craft	-1892
eater	-1893
ected	-1894
ining	-1895
▁arms	-1896
▁away	-1897
▁cafe	-1898
▁chil	-1899
▁deck	-1900
▁deep	-1901
▁free	-1902
▁grow	-1903
▁huge	-1904
▁lett	-1905
▁mach	-1906
▁shel	-1907
▁ship	-1908
▁soft	-1909
▁stru	-1910
▁town	-1911
▁beans	-1912
▁class	-1913
▁depic	-1914
▁exhib	-1915
▁flags	-1916
▁heads	-1917
▁shade	-1918
▁smoke	-1919
▁trash	-1920
ristmas	-1921
▁attemp	-1922
▁grazes	-1923
▁holder	-1924
▁kitten	-1925
▁landsc	-1926
▁mother	-1927
▁motion	-1928
▁pulled	-1929
▁resort	-1930
▁antique	-1931
▁appears	-1932
▁noodles	-1933
▁produce	-1934
▁propell	-1935
▁travels	-1936
▁working	-1937
▁writing	-1938
▁aircraft	-1939
▁arranged	-1940
▁flooring	-1941
▁hillside	-1942
▁interior	-1943
▁monitors	-1944
▁officers	-1945
▁pastries	-1946
▁position	-1947
▁reaching	-1948
▁restroom	-1949
▁apartment	-1950
▁christmas	-1951
▁competing	-1952
▁formation	-1953
▁storefront	-1954
▁pedestrians	-1955
ty	-1956
wn	-1957
▁"	-1958
gan	-1959
iny	-1960
ium	-1961
kin	-1962
laz	-1963
let	-1964
ole	-1965
oll	-1966
rop	-1967
ser	-1968
▁af	-1969
▁gl	-1970
▁is	-1971
ague	-1972
anda	-1973
bage	-1974
fast	-1975
ging	-1976
iled	-1977
iver	-1978
lies	-1979
oped	-1980
▁act	-1981
▁adj	-1982
▁ext	-1983
▁fir	-1984
▁fun	-1985
▁goo	-1986
▁ice	-1987
▁lap	-1988
▁lid	-1989
▁she	-1990
▁vis	-1991
ading	-1992
allow	-1993
ashed	-1994
aster	-1995
inals	-1996
lazed	-1997
ockey	-1998
venue	-1999
▁capt	-2000
▁chef	-2001
▁cube	-2002
▁dusk	-2003
▁fall	-2004
▁fold	-2005
▁good	-2006
▁hits	-2007
▁lays	-2008
▁load	-2009
▁muff	-2010
▁pave	-2011
▁port	-2012
▁shoe	-2013
▁tail	-2014
▁tank	-2015
▁uses	-2016
▁wets	-2017
ations	-2018
elling	-2019
▁block	-2020
▁bowls	-2021
▁chain	-2022
▁drawn	-2023
▁eaten	-2024
▁flown	-2025
▁glove	-2026
▁icing	-2027
▁muddy	-2028
▁party	-2029
▁rests	-2030
▁scoot	-2031
▁waits	-2032
▁aerial	-2033
▁avenue	-2034
▁glazed	-2035
▁league	-2036
▁ornate	-2037
▁pickup	-2038
▁sliced	-2039
▁subway	-2040
▁triang	-2041
ashioned	-2042
▁bottles	-2043
▁desktop	-2044
▁evening	-2045
▁exhibit	-2046
▁foreign	-2047
▁lettuce	-2048
▁machine	-2049
▁prepare	-2050
▁process	-2051
▁skyline	-2052
▁someone	-2053
▁toaster	-2054
▁urinals	-2055
▁washing	-2056
▁airliner	-2057
▁branches	-2058
▁brightly	-2059
▁curtains	-2060
▁shopping	-2061
▁supplies	-2062
▁breakfast	-2063
▁depicting	-2064
▁mushrooms	-2065
▁propeller	-2066
▁snowboards	-2067
▁overlooking	-2068
▁skateboards	-2069
mb	-2070
ok	-2071
py	-2072
sp	-2073
anc	-2074
eef	-2075
ges	-2076
key	-2077
ord	-2078
ose	-2079
pet	-2080
ute	-2081
▁gr	-2082
▁ju	-2083
▁ut	-2084
born	-2085
erly	-2086
gage	-2087
hill	-2088
oned	-2089
orce	-2090
redi	-2091
sert	-2092
umer	-2093
usks	-2094
▁cer	-2095
▁cru	-2096
▁dig	-2097
▁eld	-2098
▁ent	-2099
▁fed	-2100
▁foc	-2101
▁fro	-2102
▁fry	-2103
▁hom	-2104
▁ill	-2105
▁ing	-2106
▁mug	-2107
▁nam	-2108
▁reg	-2109
▁sem	-2110
▁tab	-2111
▁tea	-2112
blede	-2113
cloth	-2114
ivity	-2115
pread	-2116
▁barb	-2117
▁beef	-2118
▁bell	-2119
▁chop	-2120
▁clim	-2121
▁cute	-2122
▁dump	-2123
▁eggs	-2124
▁eyes	-2125
▁farm	-2126
▁hard	-2127
▁hole	-2128
▁kick	-2129
▁lift	-2130
▁mini	-2131
▁palm	-2132
▁pond	-2133
▁pots	-2134
▁prin	-2135
▁pump	-2136
▁rear	-2137
▁ribb	-2138
▁roll	-2139
▁rust	-2140
▁text	-2141
▁tied	-2142
▁todd	-2143
▁aband	-2144
▁alone	-2145
▁beard	-2146
▁built	-2147
▁figur	-2148
▁flock	-2149
▁frame	-2150
▁groom	-2151
▁kinds	-2152
▁lunch	-2153
▁messy	-2154
▁panda	-2155
▁paved	-2156
▁rocky	-2157
▁shape	-2158
▁split	-2159
▁stair	-2160
▁steps	-2161
▁taken	-2162
▁tusks	-2163
▁wears	-2164
▁carpet	-2165
▁clouds	-2166
▁cooked	-2167
▁desert	-2168
▁dishes	-2169
▁fridge	-2170
▁hitter	-2171
▁island	-2172
▁pepper	-2173
▁seated	-2174
▁towels	-2175
boarding	-2176
redients	-2177
▁airborn	-2178
▁baggage	-2179
▁dessert	-2180
▁elderly	-2181
▁pattern	-2182
▁rackets	-2183
▁railway	-2184
▁screens	-2185
▁walkway	-2186
bledecker	-2187
▁beverage	-2188
▁competit	-2189
▁contains	-2190
▁downhill	-2191
▁enclosed	-2192
▁pavement	-2193
▁strawber	-2194
▁swimming	-2195
▁abandoned	-2196
▁bedspread	-2197
▁connected	-2198
▁featuring	-2199
▁tablecloth	-2200
▁washington	-2201
▁ingredients	-2202
▁doubledecker	-2203
."	-2204
gy	-2205
na	-2206
pl	-2207
ys	-2208
col	-2209
eap	-2210
eds	-2211
ett	-2212
ged	-2213
lax	-2214
oup	-2215
tac	-2216
tty	-2217
▁fr	-2218
▁ge	-2219
apan	-2220
bing	-2221
ects	-2222
ific	-2223
ired	-2224
rier	-2225
stem	-2226
stly	-2227
▁dem	-2228
▁den	-2229
▁dot	-2230
▁env	-2231
▁fal	-2232
▁fog	-2233
▁fol	-2234
▁hou	-2235
▁med	-2236
▁mix	-2237
▁net	-2238
▁onl	-2239
▁pee	-2240
▁pet	-2241
▁put	-2242
▁saf	-2243
▁sod	-2244
▁som	-2245
▁vol	-2246
aping	-2247
ators	-2248
cking	-2249
ebook	-2250
eeple	-2251
ently	-2252
ering	-2253
inach	-2254
itted	-2255
pping	-2256
rican	-2257
stone	-2258
ustri	-2259
works	-2260
▁atop	-2261
▁bank	-2262
▁barn	-2263
▁bite	-2264
▁blen	-2265
▁bull	-2266
▁conf	-2267
▁deer	-2268
▁doll	-2269
▁goal	-2270
▁gril	-2271
▁keys	-2272
▁leaf	-2273
▁lear	-2274
▁life	-2275
▁pans	-2276
▁pony	-2277
▁pupp	-2278
▁push	-2279
▁ring	-2280
▁ripe	-2281
▁rope	-2282
▁self	-2283
▁shar	-2284
▁soup	-2285
▁thin	-2286
▁weat	-2287
eapple	-2288
odeled	-2289
▁balls	-2290
▁beaut	-2291
▁blond	-2292
▁bride	-2293
▁cakes	-2294
▁crust	-2295
▁enter	-2296
▁first	-2297
▁goats	-2298
▁hangs	-2299
▁japan	-2300
▁lamps	-2301
▁magaz	-2302
▁numer	-2303
▁organ	-2304
▁pasta	-2305
▁point	-2306
▁pulls	-2307
▁relax	-2308
▁rural	-2309
▁sheet	-2310
▁sinks	-2311
▁steam	-2312
▁typic	-2313
▁approa	-2314
▁button	-2315
▁cement	-2316
▁cobble	-2317
▁colors	-2318
▁course	-2319
▁covers	-2320
▁drives	-2321
▁facing	-2322
▁folded	-2323
▁garage	-2324
▁google	-2325
▁harbor	-2326
▁houses	-2327
▁mostly	-2328
▁opened	-2329
▁papers	-2330
▁poster	-2331
▁potato	-2332
▁pretty	-2333
▁ribbon	-2334
▁shadow	-2335
▁slopes	-2336
▁sports	-2337
▁sprink	-2338
▁string	-2339
▁system	-2340
▁trying	-2341
▁wheels	-2342
ironment	-2343
▁african	-2344
▁altered	-2345
▁candles	-2346
▁contest	-2347
▁deliver	-2348
▁digital	-2349
▁freight	-2350
▁mirrors	-2351
▁officer	-2352
▁peppers	-2353
▁reaches	-2354
▁scooter	-2355
▁section	-2356
▁spinach	-2357
▁staring	-2358
▁steeple	-2359
▁sweater	-2360
▁toddler	-2361
▁weather	-2362
▁wetsuit	-2363
▁winding	-2364
▁material	-2365
▁pitching	-2366
▁pointing	-2367
▁prepared	-2368
▁sailboat	-2369
▁students	-2370
▁crosswalk	-2371
▁fashioned	-2372
▁fireworks	-2373
▁pineapple	-2374
▁remodeled	-2375
▁shirtless	-2376
▁electrical	-2377
▁stretching	-2378
▁advertising	-2379
▁cobblestone	-2380
▁environment	-2381
▁snowboarding	-2382
▁advertisement	-2383
▁motorcyclists	-2384
ka	-2385
ld	-2386
ob	-2387
za	-2388
▁i	-2389
amm	-2390
att	-2391
che	-2392
con	-2393
des	-2394
ees	-2395
iam	-2396
men	-2397
ned	-2398
olf	-2399
ols	-2400
ora	-2401
ory	-2402
tit	-2403
ude	-2404
uro	-2405
▁da	-2406
▁fa	-2407
▁je	-2408
▁lu	-2409
▁na	-2410
▁ow	-2411
acon	-2412
appy	-2413
ards	-2414
aste	-2415
coun	-2416
cted	-2417
ends	-2418
erry	-2419
ible	-2420
iful	-2421
illa	-2422
lebr	-2423
leep	-2424
lete	-2425
pend	-2426
rage	-2427
roun	-2428
sses	-2429
umbo	-2430
▁ath	-2431
▁bou	-2432
▁bra	-2433
▁cuc	-2434
▁det	-2435
▁int	-2436
▁lif	-2437
▁lis	-2438
▁mem	-2439
▁pop	-2440
▁rus	-2441
▁san	-2442
▁sim	-2443
▁sol	-2444
▁sup	-2445
▁tax	-2446
▁tro	-2447
▁tsh	-2448
▁wit	-2449
allic	-2450
cture	-2451
eling	-2452
ersey	-2453
estic	-2454
field	-2455
ility	-2456
orned	-2457
paste	-2458
urope	-2459
ustom	-2460
▁bare	-2461
▁cent	-2462
▁chin	-2463
▁crou	-2464
▁duck	-2465
▁feet	-2466
▁figh	-2467
▁golf	-2468
▁hood	-2469
▁make	-2470
▁mans	-2471
▁need	-2472
▁pine	-2473
▁pipe	-2474
▁prog	-2475
▁rele	-2476
▁rode	-2477
▁saus	-2478
▁seag	-2479
▁semi	-2480
▁size	-2481
▁soda	-2482
▁stad	-2483
▁stir	-2484
▁teen	-2485
▁type	-2486
dition	-2487
olored	-2488
uminum	-2489
yclist	-2490
▁angle	-2491
▁bacon	-2492
▁basin	-2493
▁canad	-2494
▁cargo	-2495
▁carry	-2496
▁chees	-2497
▁chefs	-2498
▁chips	-2499
▁focus	-2500
▁freez	-2501
▁happy	-2502
▁heavy	-2503
▁hills	-2504
▁jumbo	-2505
▁males	-2506
▁moped	-2507
▁onion	-2508
▁plaza	-2509
▁shiny	-2510
▁short	-2511
▁sides	-2512
▁snack	-2513
▁spect	-2514
▁stool	-2515
▁tabby	-2516
ustrial	-2517
▁asleep	-2518
▁barrel	-2519
▁burger	-2520
▁celebr	-2521
▁curled	-2522
▁custom	-2523
▁device	-2524
▁europe	-2525
▁figure	-2526
▁framed	-2527
▁giving	-2528
▁gloves	-2529
▁handle	-2530
▁images	-2531
▁jersey	-2532
▁loaded	-2533
▁mashed	-2534
▁muffin	-2535
▁object	-2536
▁onlook	-2537
▁pickle	-2538
▁played	-2539
▁poised	-2540
▁skates	-2541
▁transp	-2542
▁tshirt	-2543
▁united	-2544
▁viewed	-2545
▁volley	-2546
▁waterm	-2547
▁waters	-2548
▁worker	-2549
▁adorned	-2550
▁blender	-2551
▁doorway	-2552
▁growing	-2553
▁helmets	-2554
▁leading	-2555
▁leather	-2556
▁loading	-2557
▁mainten	-2558
▁objects	-2559
▁outfits	-2560
▁rolling	-2561
▁shelves	-2562
▁storage	-2563
▁tourist	-2564
▁warning	-2565
▁wrapped	-2566
▁airborne	-2567
▁aluminum	-2568
▁figurine	-2569
▁learning	-2570
▁metallic	-2571
▁monument	-2572
▁notebook	-2573
▁someones	-2574
▁stickers	-2575
▁beautiful	-2576
▁captivity	-2577
▁landscape	-2578
▁patterned	-2579
▁attempting	-2580
▁containers	-2581
▁directions	-2582
▁headphones	-2583
▁industrial	-2584
▁lighthouse	-2585
▁practicing	-2586
▁spectators	-2587
▁toothpaste	-2588
▁decorations	-2589
▁maintenance	-2590
▁strawberries	-2591
▁skateboarders	-2592
".	-2593
ex	-2594
ha	-2595
me	-2596
ng	-2597
ov	-2598
ua	-2599
vd	-2600
wa	-2601
act	-2602
bag	-2603
car	-2604
ded	-2605
eas	-2606
els	-2607
ept	-2608
hin	-2609
ils	-2610
ird	-2611
jor	-2612
oni	-2613
opy	-2614
pos	-2615
ray	-2616
res	-2617
thy	-2618
ume	-2619
ung	-2620
uri	-2621
uzz	-2622
van	-2623
vid	-2624
abit	-2625
asty	-2626
atic	-2627
cket	-2628
elon	-2629
ener	-2630
ette	-2631
hand	-2632
icip	-2633
ient	-2634
iing	-2635
imes	-2636
irts	-2637
kers	-2638
lish	-2639
nish	-2640
orth	-2641
park	-2642
pped	-2643
rubs	-2644
ulls	-2645
ured	-2646
vely	-2647
work	-2648
yard	-2649
▁alp	-2650
▁ast	-2651
▁aud	-2652
▁cra	-2653
▁dim	-2654
▁dom	-2655
▁for	-2656
▁hum	-2657
▁jar	-2658
▁oct	-2659
▁oli	-2660
▁rad	-2661
▁rec	-2662
▁rep	-2663
▁rug	-2664
▁tun	-2665
▁ult	-2666
▁unm	-2667
▁vil	-2668
▁wre	-2669
acent	-2670
althy	-2671
ammal	-2672
andal	-2673
asher	-2674
asing	-2675
attoo	-2676
ature	-2677
essor	-2678
ience	-2679
inish	-2680
istic	-2681
liner	-2682
lower	-2683
ption	-2684
ssing	-2685
sting	-2686
tress	-2687
▁anch	-2688
▁arch	-2689
▁beak	-2690
▁blow	-2691
▁brit	-2692
▁calf	-2693
▁calm	-2694
▁caul	-2695
▁chro	-2696
▁coll	-2697
▁cond	-2698
▁cost	-2699
▁cups	-2700
▁dead	-2701
▁entr	-2702
▁exam	-2703
▁fast	-2704
▁fixt	-2705
▁foli	-2706
▁hold	-2707
▁hose	-2708
▁jets	-2709
▁kept	-2710
▁lane	-2711
▁lawn	-2712
▁lead	-2713
▁ligh	-2714
▁logo	-2715
▁magn	-2716
▁mari	-2717
▁move	-2718
▁name	-2719
▁nose	-2720
▁oper	-2721
▁padd	-2722
▁plan	-2723
▁poss	-2724
▁rows	-2725
▁scar	-2726
▁sill	-2727
▁skin	-2728
▁soap	-2729
▁tape	-2730
▁toys	-2731
▁vend	-2732
▁wait	-2733
▁ware	-2734
abitat	-2735
ending	-2736
erving	-2737
ething	-2738
ration	-2739
titude	-2740
▁backs	-2741
▁booth	-2742
▁candy	-2743
▁chili	-2744
▁cloud	-2745
▁cones	-2746
▁cooks	-2747
▁crumb	-2748
▁cycle	-2749
▁devel	-2750
▁drive	-2751
▁ducks	-2752
▁fight	-2753
▁gravy	-2754
▁leafy	-2755
▁leans	-2756
▁lines	-2757
▁loung	-2758
▁major	-2759
▁north	-2760
▁oppos	-2761
▁order	-2762
▁plaid	-2763
▁polka	-2764
▁posed	-2765
▁puppy	-2766
▁purse	-2767
▁refle	-2768
▁roast	-2769
▁seats	-2770
▁socks	-2771
▁speak	-2772
▁spots	-2773
▁storm	-2774
▁thats	-2775
▁toast	-2776
▁towed	-2777
▁winds	-2778
▁wings	-2779
▁wires	-2780
▁words	-2781
▁world	-2782
country	-2783
ination	-2784
▁biting	-2785
▁blades	-2786
▁blonde	-2787
▁booksh	-2788
▁busses	-2789
▁candle	-2790
▁childs	-2791
▁curren	-2792
▁donkey	-2793
▁fallen	-2794
▁feeder	-2795
▁follow	-2796
▁jockey	-2797
▁maroon	-2798
▁midair	-2799
▁obstac	-2800
▁olives	-2801
▁paddle	-2802
▁passes	-2803
▁return	-2804
▁runner	-2805
▁series	-2806
▁serves	-2807
▁shaded	-2808
▁sheets	-2809
▁shrubs	-2810
▁stance	-2811
▁sticks	-2812
▁stream	-2813
▁strike	-2814
▁tattoo	-2815
▁tunnel	-2816
▁upside	-2817
ditional	-2818
essories	-2819
rounding	-2820
▁batting	-2821
▁cabbage	-2822
▁central	-2823
▁chewing	-2824
▁classic	-2825
▁collage	-2826
▁daytime	-2827
▁fighter	-2828
▁fishing	-2829
▁freezer	-2830
▁furnish	-2831
▁grasses	-2832
▁habitat	-2833
▁handbag	-2834
▁handles	-2835
▁healthy	-2836
▁leaping	-2837
▁pathway	-2838
▁perches	-2839
▁pumpkin	-2840
▁sausage	-2841
▁shallow	-2842
▁skating	-2843
▁smaller	-2844
▁stacked	-2845
▁stadium	-2846
▁trailer	-2847
▁village	-2848
esticated	-2849
▁adjacent	-2850
▁altitude	-2851
▁assorted	-2852
▁climbing	-2853
▁counters	-2854
▁designed	-2855
▁floating	-2856
▁frosting	-2857
▁mattress	-2858
▁practice	-2859
▁tabletop	-2860
▁triangle	-2861
▁childrens	-2862
▁nighttime	-2863
▁observing	-2864
▁skatepark	-2865
▁something	-2866
▁sprinkles	-2867
▁structure	-2868
▁warehouse	-2869
▁collection	-2870
▁reflection	-2871
▁watermelon	-2872
▁accessories	-2873
▁electronics	-2874
▁photographs	-2875
▁surrounding	-2876
▁crosscountry	-2877
▁domesticated	-2878
▁snowboarders	-2879
▁toothbrushes	-2880
af	-2881
be	-2882
ca	-2883
cy	-2884
mm	-2885
wh	-2886
ass	-2887
cot	-2888
cur	-2889
dom	-2890
for	-2891
hua	-2892
ico	-2893
ier	-2894
iff	-2895
ise	-2896
loy	-2897
mar	-2898
nal	-2899
niv	-2900
nov	-2901
oop	-2902
ope	-2903
ost	-2904
pan	-2905
rat	-2906
ris	-2907
rot	-2908
tru	-2909
urf	-2910
val	-2911
vol	-2912
xed	-2913
▁do	-2914
▁el	-2915
▁hi	-2916
▁mc	-2917
▁pc	-2918
▁rd	-2919
▁ti	-2920
▁vi	-2921
ales	-2922
amic	-2923
anta	-2924
aper	-2925
ared	-2926
bers	-2927
cher	-2928
eeds	-2929
ells	-2930
ffet	-2931
gets	-2932
gged	-2933
gout	-2934
ibly	-2935
ider	-2936
isco	-2937
itar	-2938
ives	-2939
ivid	-2940
kini	-2941
lain	-2942
lege	-2943
opus	-2944
oram	-2945
otic	-2946
quid	-2947
ring	-2948
sing	-2949
stri	-2950
ucts	-2951
ware	-2952
wood	-2953
▁ang	-2954
▁aqu	-2955
▁awa	-2956
▁beg	-2957
▁bid	-2958
▁bor	-2959
▁dan	-2960
▁dep	-2961
▁dod	-2962
▁emp	-2963
▁get	-2964
▁guy	-2965
▁hes	-2966
▁ins	-2967
▁jam	-2968
▁lad	-2969
▁lam	-2970
▁las	-2971
▁loc	-2972
▁mac	-2973
▁mit	-2974
▁nat	-2975
▁off	-2976
▁oil	-2977
▁pea	-2978
▁pig	-2979
▁que	-2980
▁sam	-2981
▁sox	-2982
▁stu	-2983
▁sus	-2984
▁tin	-2985
▁val	-2986
▁wag	-2987
alled	-2988
dered	-2989
elled	-2990
emade	-2991
ggies	-2992
imate	-2993
otted	-2994
plane	-2995
quets	-2996
usion	-2997
▁bars	-2998
▁bats	-2999
▁bean	-3000
▁bent	-3001
▁bill	-3002
▁blvd	-3003
▁bows	-3004
▁bund	-3005
▁bunk	-3006
▁cage	-3007
▁card	-3008
▁char	-3009
▁comb	-3010
▁cool	-3011
▁cuts	-3012
▁deta	-3013
▁disk	-3014
▁dual	-3015
▁ears	-3016
▁ever	-3017
▁fair	-3018
▁fill	-3019
▁foal	-3020
▁foil	-3021
▁glue	-3022
▁groc	-3023
▁hamb	-3024
▁item	-3025
▁keep	-3026
▁knee	-3027
▁lamb	-3028
▁lego	-3029
▁lens	-3030
▁link	-3031
▁love	-3032
▁main	-3033
▁meas	-3034
▁menu	-3035
▁mote	-3036
▁neon	-3037
▁nuts	-3038
▁pens	-3039
▁pres	-3040
▁proj	-3041
▁prot	-3042
▁rese	-3043
▁runs	-3044
▁shut	-3045
▁siam	-3046
▁site	-3047
▁them	-3048
▁tops	-3049
▁twin	-3050
▁unri	-3051
▁wake	-3052
▁whit	-3053
▁wool	-3054
▁worn	-3055
▁yach	-3056
erness	-3057
erries	-3058
estern	-3059
icious	-3060
idence	-3061
iental	-3062
ightly	-3063
isting	-3064
lowing	-3065
raying	-3066
serole	-3067
sticks	-3068
ughing	-3069
umbers	-3070
▁alarm	-3071
▁alley	-3072
▁areas	-3073
▁arrow	-3074
▁autom	-3075
▁bagel	-3076
▁boots	-3077
▁brain	-3078
▁canal	-3079
▁carts	-3080
▁china	-3081
▁coast	-3082
▁crate	-3083
▁daugh	-3084
▁early	-3085
▁fedex	-3086
▁flats	-3087
▁float	-3088
▁flood	-3089
▁foggy	-3090
▁franc	-3091
▁great	-3092
▁grind	-3093
▁human	-3094
▁india	-3095
▁invol	-3096
▁jeans	-3097
▁juice	-3098
▁lower	-3099
▁mario	-3100
▁mixed	-3101
▁music	-3102
▁neckt	-3103
▁overp	-3104
▁owner	-3105
▁patch	-3106
▁patio	-3107
▁pears	-3108
▁piled	-3109
▁pipes	-3110
▁porce	-3111
▁price	-3112
▁prote	-3113
▁queen	-3114
▁rodeo	-3115
▁roman	-3116
▁roses	-3117
▁santa	-3118
▁seeds	-3119
▁shops	-3120
▁sizes	-3121
▁skirt	-3122
▁smart	-3123
▁sound	-3124
▁south	-3125
▁sport	-3126
▁squat	-3127
▁still	-3128
▁stock	-3129
▁story	-3130
▁super	-3131
▁tasty	-3132
▁teamm	-3133
▁teams	-3134
▁third	-3135
▁thumb	-3136
▁tiles	-3137
▁trays	-3138
▁weeds	-3139
▁wrest	-3140
iflower	-3141
▁alpine	-3142
▁appear	-3143
▁baking	-3144
▁banner	-3145
▁bikini	-3146
▁broken	-3147
▁buffet	-3148
▁butter	-3149
▁carniv	-3150
▁chrome	-3151
▁clocks	-3152
▁confer	-3153
▁contra	-3154
▁dugout	-3155
▁employ	-3156
▁finish	-3157
▁formal	-3158
▁frying	-3159
▁giants	-3160
▁grapes	-3161
▁guitar	-3162
▁haired	-3163
▁hockey	-3164
▁liquid	-3165
▁listen	-3166
▁mammal	-3167
▁marble	-3168
▁meters	-3169
▁multic	-3170
▁parrot	-3171
▁pastry	-3172
▁points	-3173
▁raised	-3174
▁rusted	-3175
▁safety	-3176
▁saying	-3177
▁scenic	-3178
▁selfie	-3179
▁shirts	-3180
▁sleeps	-3181
▁stacks	-3182
▁stairs	-3183
▁stripe	-3184
▁studio	-3185
▁things	-3186
▁upward	-3187
▁urinal	-3188
▁vandal	-3189
▁vendor	-3190
▁waving	-3191
▁windsh	-3192
▁artific	-3193
▁athlete	-3194
▁barrier	-3195
▁baskets	-3196
▁biplane	-3197
▁bouquet	-3198
▁british	-3199
▁cartoon	-3200
▁catches	-3201
▁ceiling	-3202
▁ceramic	-3203
▁chinese	-3204
▁compete	-3205
▁damaged	-3206
▁doubles	-3207
▁falling	-3208
▁females	-3209
▁firetru	-3210
▁foliage	-3211
▁forward	-3212
▁friends	-3213
▁garbage	-3214
▁grilled	-3215
▁illumin	-3216
▁individ	-3217
▁indoors	-3218
▁jockeys	-3219
▁knitted	-3220
▁natural	-3221
▁octopus	-3222
▁panoram	-3223
▁planter	-3224
▁popular	-3225
▁putting	-3226
▁railing	-3227
▁selling	-3228
▁service	-3229
▁siamese	-3230
▁spotted	-3231
▁streets	-3232
▁strings	-3233
▁support	-3234
▁toilets	-3235
▁turning	-3236
▁utility	-3237
▁visible	-3238
▁watched	-3239
▁wrapper	-3240
▁younger	-3241
▁accident	-3242
▁anchored	-3243
▁attempts	-3244
▁boarders	-3245
▁circular	-3246
▁covering	-3247
▁cucumber	-3248
▁cyclists	-3249
▁entrance	-3250
▁equipped	-3251
▁featured	-3252
▁forested	-3253
▁greenery	-3254
▁homemade	-3255
▁intently	-3256
▁japanese	-3257
▁jetliner	-3258
▁laughing	-3259
▁lighting	-3260
▁lounging	-3261
▁magazine	-3262
▁official	-3263
▁opposite	-3264
▁oriental	-3265
▁paddling	-3266
▁particip	-3267
▁pictured	-3268
▁possibly	-3269
▁products	-3270
▁progress	-3271
▁racquets	-3272
▁relaxing	-3273
▁seagulls	-3274
▁shutters	-3275
▁softball	-3276
▁stopping	-3277
▁sunlight	-3278
▁ultimate	-3279
▁waterway	-3280
▁beverages	-3281
▁casserole	-3282
▁classroom	-3283
▁delicious	-3284
▁francisco	-3285
▁gathering	-3286
▁hamburger	-3287
▁installed	-3288
▁miniature	-3289
▁onlookers	-3290
▁pepperoni	-3291
▁porcelain	-3292
▁shoreline	-3293
▁stoplight	-3294
▁stretched	-3295
▁telephone	-3296
▁basketball	-3297
▁bicyclists	-3298
▁cellphones	-3299
▁chopsticks	-3300
▁consisting	-3301
▁countertop	-3302
▁playground	-3303
▁triangular	-3304
▁vandalized	-3305
▁wilderness	-3306
▁approaching	-3307
▁cauliflower	-3308
▁competitive	-3309
▁furnishings	-3310
▁mountainous	-3311
▁traditional	-3312
▁motorcyclist	-3313
▁multicolored	-3314
▁photographed	-3315
ai	-3316
gu	-3317
ji	-3318
so	-3319
uk	-3320
vo	-3321
▁.	-3322
agh	-3323
amp	-3324
ank	-3325
ara	-3326
arn	-3327
asa	-3328
ath	-3329
bby	-3330
bed	-3331
cts	-3332
elt	-3333
ena	-3334
hed	-3335
hop	-3336
hor	-3337
hou	-3338
ich	-3339
ics	-3340
ike	-3341
ilt	-3342
ios	-3343
ker	-3344
lap	-3345
law	-3346
lel	-3347
mit	-3348
mon	-3349
ney	-3350
pef	-3351
pen	-3352
pia	-3353
rid	-3354
rub	-3355
sts	-3356
tly	-3357
ueb	-3358
uls	-3359
umn	-3360
urt	-3361
war	-3362
xim	-3363
yed	-3364
zen	-3365
▁er	-3366
▁es	-3367
▁gy	-3368
▁ir	-3369
▁ki	-3370
▁uk	-3371
agna	-3372
apes	-3373
arch	-3374
ased	-3375
band	-3376
bile	-3377
cast	-3378
ccup	-3379
chet	-3380
coln	-3381
cony	-3382
drop	-3383
eart	-3384
elle	-3385
eree	-3386
ests	-3387
etti	-3388
fall	-3389
foot	-3390
icap	-3391
icle	-3392
iger	-3393
iles	-3394
ilia	-3395
ined	-3396
itan	-3397
ival	-3398
izon	-3399
lers	-3400
ngth	-3401
onal	-3402
oney	-3403
onst	-3404
oral	-3405
orch	-3406
ough	-3407
rian	-3408
rous	-3409
russ	-3410
uffy	-3411
ught	-3412
unks	-3413
used	-3414
uzzy	-3415
vate	-3416
view	-3417
vily	-3418
ways	-3419
zing	-3420
zzly	-3421
▁aim	-3422
▁asc	-3423
▁ave	-3424
▁bur	-3425
▁coo	-3426
▁def	-3427
▁dev	-3428
▁dra	-3429
▁eit	-3430
▁fox	-3431
▁gaz	-3432
▁gum	-3433
▁han	-3434
▁hoo	-3435
▁how	-3436
▁inf	-3437
▁jun	-3438
▁led	-3439
▁leg	-3440
▁lim	-3441
▁map	-3442
▁nap	-3443
▁ner	-3444
▁nic	-3445
▁nur	-3446
▁oak	-3447
▁pay	-3448
▁pit	-3449
▁rot	-3450
▁see	-3451
▁six	-3452
▁sti	-3453
▁sug	-3454
▁tug	-3455
▁tul	-3456
▁yog	-3457
aging	-3458
allel	-3459
ament	-3460
anted	-3461
apore	-3462
bbing	-3463
brary	-3464
cakes	-3465
cover	-3466
creen	-3467
ctive	-3468
eaten	-3469
elves	-3470
enser	-3471
ereal	-3472
eties	-3473
ettes	-3474
fight	-3475
ickly	-3476
inger	-3477
ished	-3478
ishes	-3479
ister	-3480
istor	-3481
lings	-3482
ooked	-3483
ordin	-3484
ounge	-3485
oured	-3486
phere	-3487
pical	-3488
ronto	-3489
ropol	-3490
urban	-3491
urips	-3492
usked	-3493
usual	-3494
ution	-3495
vanna	-3496
veled	-3497
▁also	-3498
▁aqua	-3499
▁asia	-3500
▁belt	-3501
▁bump	-3502
▁cans	-3503
▁clad	-3504
▁clus	-3505
▁cola	-3506
▁cold	-3507
▁cone	-3508
▁cord	-3509
▁cush	-3510
▁desc	-3511
▁dorm	-3512
▁emer	-3513
▁fake	-3514
▁fest	-3515
▁film	-3516
▁foam	-3517
▁foun	-3518
▁gall	-3519
▁gets	-3520
▁goes	-3521
▁grin	-3522
▁guys	-3523
▁hamm	-3524
▁haul	-3525
▁heel	-3526
▁hoop	-3527
▁hosp	-3528
▁hugg	-3529
▁hung	-3530
▁iron	-3531
▁ital	-3532
▁king	-3533
▁kiss	-3534
▁mall	-3535
▁mane	-3536
▁meet	-3537
▁mens	-3538
▁mitt	-3539
▁must	-3540
▁navy	-3541
▁neat	-3542
▁ones	-3543
▁orio	-3544
▁pige	-3545
▁plow	-3546
▁quar	-3547
▁recl	-3548
▁rhin	-3549
▁roam	-3550
▁seas	-3551
▁sequ	-3552
▁serv	-3553
▁slip	-3554
▁spec	-3555
▁stew	-3556
▁talk	-3557
▁tent	-3558
▁ties	-3559
▁tiny	-3560
▁tire	-3561
▁tort	-3562
▁trav	-3563
▁trol	-3564
▁vane	-3565
▁vert	-3566
▁vess	-3567
▁west	-3568
▁whis	-3569
▁wing	-3570
▁yarn	-3571
▁zone	-3572
achute	-3573
cheted	-3574
coming	-3575
ctions	-3576
curity	-3577
eeling	-3578
ements	-3579
hedral	-3580
ically	-3581
icular	-3582
inning	-3583
leslaw	-3584
orting	-3585
ouring	-3586
pended	-3587
redded	-3588
rument	-3589
strich	-3590
ulated	-3591
urning	-3592
usting	-3593
vering	-3594
washer	-3595
▁accom	-3596
▁airsh	-3597
▁allow	-3598
▁angry	-3599
▁antel	-3600
▁arena	-3601
▁artic	-3602
▁balan	-3603
▁bases	-3604
▁blood	-3605
▁blueb	-3606
▁bundt	-3607
▁cases	-3608
▁cerem	-3609
▁claim	-3610
▁claws	-3611
▁curly	-3612
▁demol	-3613
▁denim	-3614
▁depar	-3615
▁dried	-3616
▁exter	-3617
▁feeds	-3618
▁forks	-3619
▁fryer	-3620
▁fuzzy	-3621
▁geese	-3622
▁gener	-3623
▁gives	-3624
▁goods	-3625
▁grain	-3626
▁grill	-3627
▁guide	-3628
▁heart	-3629
▁hello	-3630
▁herds	-3631
▁hilly	-3632
▁homes	-3633
▁indic	-3634
▁inspe	-3635
▁leads	-3636
▁level	-3637
▁lobby	-3638
▁lodge	-3639
▁maker	-3640
▁maple	-3641
▁meals	-3642
▁metro	-3643
▁money	-3644
▁moves	-3645
▁newly	-3646
▁newsp	-3647
▁occup	-3648
▁paint	-3649
▁panel	-3650
▁parts	-3651
▁piles	-3652
▁porch	-3653
▁power	-3654
▁quilt	-3655
▁reach	-3656
▁recor	-3657
▁renov	-3658
▁ridge	-3659
▁route	-3660
▁rusty	-3661
▁scale	-3662
▁scarf	-3663
▁scoop	-3664
▁scrub	-3665
▁sells	-3666
▁separ	-3667
▁sepia	-3668
▁setup	-3669
▁seven	-3670
▁shots	-3671
▁skies	-3672
▁skiis	-3673
▁skill	-3674
▁skull	-3675
▁sneak	-3676
▁solar	-3677
▁spagh	-3678
▁spire	-3679
▁stops	-3680
▁strip	-3681
▁sunsh	-3682
▁surfs	-3683
▁sweet	-3684
▁tails	-3685
▁talks	-3686
▁thick	-3687
▁times	-3688
▁under	-3689
▁visit	-3690
▁wrist	-3691
▁years	-3692
▁youth	-3693
ational	-3694
covered	-3695
estrian	-3696
gerines	-3697
pefruit	-3698
western	-3699
▁astron	-3700
▁attire	-3701
▁bakery	-3702
▁border	-3703
▁boxing	-3704
▁bubble	-3705
▁bucket	-3706
▁calico	-3707
▁canada	-3708
▁canoes	-3709
▁canopy	-3710
▁casual	-3711
▁cereal	-3712
▁circus	-3713
▁compan	-3714
▁condim	-3715
▁consum	-3716
▁corral	-3717
▁costum	-3718
▁curved	-3719
▁cutter	-3720
▁damage	-3721
▁diners	-3722
▁either	-3723
▁fitted	-3724
▁floral	-3725
▁fluffy	-3726
▁goalie	-3727
▁gravel	-3728
▁guards	-3729
▁hammer	-3730
▁histor	-3731
▁illust	-3732
▁indian	-3733
▁instru	-3734
▁larger	-3735
▁launch	-3736
▁length	-3737
▁lifted	-3738
▁linens	-3739
▁lounge	-3740
▁mascot	-3741
▁mobile	-3742
▁native	-3743
▁nicely	-3744
▁pedals	-3745
▁peeled	-3746
▁posted	-3747
▁proper	-3748
▁repair	-3749
▁rustic	-3750
▁safari	-3751
▁shapes	-3752
▁silhou	-3753
▁spread	-3754
▁spring	-3755
▁stares	-3756
▁states	-3757
▁stones	-3758
▁stormy	-3759
▁strewn	-3760
▁strips	-3761
▁tagged	-3762
▁thread	-3763
▁towers	-3764
▁tulips	-3765
▁turkey	-3766
▁turned	-3767
▁tusked	-3768
▁unmade	-3769
▁unripe	-3770
▁valley	-3771
▁wading	-3772
▁wicker	-3773
▁womans	-3774
▁yachts	-3775
▁yogurt	-3776
fighters	-3777
▁balcony	-3778
▁balloon	-3779
▁bending	-3780
▁blowing	-3781
▁buttons	-3782
▁caption	-3783
▁carrier	-3784
▁carries	-3785
▁chained	-3786
▁college	-3787
▁commode	-3788
▁coordin	-3789
▁cubicle	-3790
▁demonst	-3791
▁devices	-3792
▁drawers	-3793
▁engaged	-3794
▁england	-3795
▁express	-3796
▁flatbed	-3797
▁flooded	-3798
▁freeway	-3799
▁freshly	-3800
▁grizzly	-3801
▁grocery	-3802
▁heavily	-3803
▁herding	-3804
▁hotdogs	-3805
▁howling	-3806
▁hugging	-3807
▁kicking	-3808
▁kittens	-3809
▁lasagna	-3810
▁layered	-3811
▁library	-3812
▁licking	-3813
▁lincoln	-3814
▁members	-3815
▁message	-3816
▁muffins	-3817
▁musical	-3818
▁mustard	-3819
▁neurips	-3820
▁ostrich	-3821
▁package	-3822
▁packing	-3823
▁powered	-3824
▁private	-3825
▁project	-3826
▁pushing	-3827
▁quickly	-3828
▁referee	-3829
▁remotes	-3830
▁ridding	-3831
▁savanna	-3832
▁shadows	-3833
▁shaking	-3834
▁shining	-3835
▁skaters	-3836
▁slanted	-3837
▁sticker	-3838
▁stripes	-3839
▁tattoos	-3840
▁teenage	-3841
▁terrier	-3842
▁texture	-3843
▁toronto	-3844
▁tossing	-3845
▁touches	-3846
▁transit	-3847
▁trolley	-3848
▁typical	-3849
▁unusual	-3850
▁workers	-3851
ropolitan	-3852
▁airfield	-3853
▁artistic	-3854
▁audience	-3855
▁backdrop	-3856
▁backhand	-3857
▁barefoot	-3858
▁basement	-3859
▁blankets	-3860
▁canadian	-3861
▁cellular	-3862
▁checking	-3863
▁coleslaw	-3864
▁contents	-3865
▁controls	-3866
▁daughter	-3867
▁detailed	-3868
▁displays	-3869
▁entering	-3870
▁european	-3871
▁festival	-3872
▁fixtures	-3873
▁fountain	-3874
▁grouping	-3875
▁handicap	-3876
▁hardwood	-3877
▁hospital	-3878
▁kneeling	-3879
▁matching	-3880
▁numerals	-3881
▁numerous	-3882
▁obstacle	-3883
▁occupied	-3884
▁overpass	-3885
▁parallel	-3886
▁pedestal	-3887
▁portable	-3888
▁powdered	-3889
▁radishes	-3890
▁research	-3891
▁security	-3892
▁shredded	-3893
▁spraying	-3894
▁striking	-3895
▁suburban	-3896
▁swimmers	-3897
▁teammate	-3898
▁tortilla	-3899
▁training	-3900
▁tropical	-3901
▁windsurf	-3902
▁wireless	-3903
▁cathedral	-3904
▁courtyard	-3905
▁crocheted	-3906
▁crouching	-3907
▁customers	-3908
▁developed	-3909
▁diffusion	-3910
▁dispenser	-3911
▁examining	-3912
▁finishing	-3913
▁firetruck	-3914
▁headboard	-3915
▁kiteboard	-3916
▁listening	-3917
▁magazines	-3918
▁measuring	-3919
▁organized	-3920
▁panoramic	-3921
▁parachute	-3922
▁personnel	-3923
▁practices	-3924
▁residence	-3925
▁returning	-3926
▁singapore	-3927
▁spaghetti	-3928
▁stockings	-3929
▁stretches	-3930
▁suspended	-3931
▁transport	-3932
▁typically	-3933
▁varieties	-3934
▁waterfall	-3935
▁approaches	-3936
▁artificial	-3937
▁competitor	-3938
▁conference	-3939
▁demolished	-3940
▁dishwasher	-3941
▁enclosures	-3942
▁equestrian	-3943
▁flatscreen	-3944
▁grapefruit	-3945
▁instructor	-3946
▁instrument	-3947
▁pineapples	-3948
▁positioned	-3949
▁sculptures	-3950
▁tangerines	-3951
▁toiletries	-3952
▁travelling	-3953
▁vegetation	-3954
▁windshield	-3955
▁bookshelves	-3956
▁combination	-3957
▁compartment	-3958
▁countryside	-3959
▁directional	-3960
▁illuminated	-3961
▁instruction	-3962
▁preparation	-3963
▁coordinating	-3964
▁firefighters	-3965
▁illustration	-3966
▁metropolitan	-3967
▁photographer	-3968
▁participating	-3969
▁advertisements	-3970
kn	-3971
ls	-3972
wy	-3973
yh	-3974
aks	-3975
ama	-3976
ame	-3977
ani	-3978
api	-3979
aps	-3980
aut	-3981
cem	-3982
chn	-3983
cul	-3984
eye	-3985
fee	-3986
fic	-3987
fth	-3988
gen	-3989
gon	-3990
hem	-3991
ica	-3992
idy	-3993
ita	-3994
jam	-3995
ksh	-3996
lab	-3997
lev	-3998
oly	-3999
nt	-4000
wk	-4001
ze	-4002
▁x	-4003
ana	-4004
arp	-4005
den	-4006
etc	-4007
fet	-4008
met	-4009
nas	-4010
nch	-4011
not	-4012
oms	-4013
ota	-4014
oul	-4015
pie	-4016
rib	-4017
sem	-4018
tal	-4019
tra	-4020
ube	-4021
uck	-4022
udd	-4023
uel	-4024
ula	-4025
ups	-4026
ury	-4027
vas	-4028
vew	-4029
vey	-4030
vil	-4031
▁ag	-4032
▁av	-4033
▁cy	-4034
▁fb	-4035
▁hy	-4036
▁ii	-4037
▁ip	-4038
▁jo	-4039
▁ox	-4040
abic	-4041
aced	-4042
ader	-4043
ains	-4044
alls	-4045
angu	-4046
ansa	-4047
anse	-4048
ares	-4049
arse	-4050
arth	-4051
atch	-4052
atee	-4053
bark	-4054
bars	-4055
bath	-4056
book	-4057
borh	-4058
bows	-4059
cade	-4060
cake	-4061
cept	-4062
come	-4063
dale	-4064
dium	-4065
eing	-4066
eled	-4067
emen	-4068
emet	-4069
enos	-4070
ense	-4071
enue	-4072
ereo	-4073
eria	-4074
eros	-4075
gant	-4076
guin	-4077
hout	-4078
iche	-4079
icop	-4080
ided	-4081
ihua	-4082
ilar	-4083
iler	-4084
iosk	-4085
isha	-4086
isty	-4087
kins	-4088
life	-4089
lton	-4090
mins	-4091
mmed	-4092
mons	-4093
most	-4094
oked	-4095
olli	-4096
omas	-4097
opes	-4098
orab	-4099
yl	-4100
alt	-4101
boy	-4102
ggy	-4103
ipe	-4104
ked	-4105
oji	-4106
rac	-4107
reg	-4108
ret	-4109
rit	-4110
roy	-4111
ues	-4112
wal	-4113
▁iv	-4114
▁mu	-4115
airy	-4116
alog	-4117
bbit	-4118
cing	-4119
horn	-4120
igar	-4121
kapi	-4122
osed	-4123
pain	-4124
perf	-4125
pipe	-4126
post	-4127
rail	-4128
reds	-4129
reek	-4130
rimp	-4131
sive	-4132
ssom	-4133
ston	-4134
tend	-4135
tery	-4136
town	-4137
trak	-4138
uals	-4139
uana	-4140
ucer	-4141
ucet	-4142
umns	-4143
utes	-4144
vest	-4145
vous	-4146
▁aer	-4147
▁ana	-4148
▁bad	-4149
▁bay	-4150
▁bul	-4151
▁buy	-4152
▁cop	-4153
▁dip	-4154
▁dub	-4155
▁enf	-4156
▁era	-4157
▁etc	-4158
▁fab	-4159
▁fan	-4160
▁fav	-4161
▁fbi	-4162
▁fut	-4163
▁gad	-4164
▁gal	-4165
▁gas	-4166
▁gay	-4167
▁ger	-4168
▁gun	-4169
▁gym	-4170
▁hal	-4171
▁his	-4172
▁hun	-4173
▁hut	-4174
▁ith	-4175
▁jal	-4176
▁ket	-4177
▁lat	-4178
▁let	-4179
▁lip	-4180
▁lun	-4181
▁lux	-4182
▁mcd	-4183
▁mel	-4184
▁min	-4185
▁moo	-4186
▁nok	-4187
▁nud	-4188
▁oar	-4189
▁oly	-4190
▁owl	-4191
▁pac	-4192
▁paw	-4193
▁pel	-4194
▁pir	-4195
▁rel	-4196
▁rub	-4197
▁sad	-4198
▁ses	-4199
gn	-4200
ma	-4201
tw	-4202
▁&	-4203
dar	-4204
jet	-4205
lin	-4206
▁ja	-4207
▁tu	-4208
acks	-4209
agus	-4210
ancy	-4211
anut	-4212
iday	-4213
orly	-4214
oses	-4215
rait	-4216
rong	-4217
tons	-4218
uary	-4219
uits	-4220
▁bud	-4221
▁fix	-4222
▁law	-4223
▁slo	-4224
▁smo	-4225
▁son	-4226
▁spe	-4227
▁sta	-4228
▁sum	-4229
▁suv	-4230
▁tee	-4231
▁tex	-4232
▁tip	-4233
▁tor	-4234
▁unc	-4235
▁vac	-4236
▁ves	-4237
▁vib	-4238
▁vul	-4239
▁wil	-4240
▁you	-4241
allen	-4242
amond	-4243
ander	-4244
annel	-4245
asail	-4246
brown	-4247
ccess	-4248
ckers	-4249
close	-4250
color	-4251
eadow	-4252
eared	-4253
eeing	-4254
eeled	-4255
eming	-4256
entil	-4257
entle	-4258
etric	-4259
gency	-4260
going	-4261
green	-4262
icine	-4263
iforn	-4264
igned	-4265
illed	-4266
imney	-4267
iners	-4268
irrel	-4269
ising	-4270
itect	-4271
ities	-4272
ively	-4273
izing	-4274
jamas	-4275
lapid	-4276
leece	-4277
lenty	-4278
letes	-4279
mbols	-4280
obile	-4281
ongue	-4282
onial	-4283
oning	-4284
orado	-4285
orous	-4286
ously	-4287
parel	-4288
phalt	-4289
piece	-4290
press	-4291
rayed	-4292
ridor	-4293
ronts	-4294
rough	-4295
routs	-4296
swing	-4297
tache	-4298
tment	-4299
uated	-4300
uctor	-4301
ugged	-4302
unkin	-4303
uting	-4304
veals	-4305
verse	-4306
veyor	-4307
vided	-4308
wards	-4309
▁able	-4310
▁arid	-4311
▁bald	-4312
▁band	-4313
▁bann	-4314
▁best	-4315
▁budd	-4316
▁buns	-4317
▁burn	-4318
▁camp	-4319
▁cane	-4320
▁care	-4321
▁coal	-4322
▁crew	-4323
▁curl	-4324
▁dash	-4325
▁days	-4326
▁dest	-4327
▁dive	-4328
▁duke	-4329
▁fans	-4330
▁fare	-4331
▁give	-4332
▁gour	-4333
▁grip	-4334
▁hall	-4335
▁harn	-4336
▁heat	-4337
▁help	-4338
▁hero	-4339
▁hoof	-4340
▁hous	-4341
▁hudd	-4342
▁hund	-4343
▁ipod	-4344
▁jugg	-4345
▁just	-4346
▁kiwi	-4347
▁knit	-4348
▁lass	-4349
▁limb	-4350
▁lind	-4351
▁lisa	-4352
▁lite	-4353
▁live	-4354
▁loaf	-4355
▁marg	-4356
▁mary	-4357
▁mats	-4358
▁mice	-4359
▁midf	-4360
▁mill	-4361
▁mona	-4362
▁nest	-4363
▁none	-4364
▁note	-4365
▁oldf	-4366
▁page	-4367
▁pale	-4368
▁pant	-4369
▁paws	-4370
▁peak	-4371
▁pear	-4372
▁peel	-4373
▁penc	-4374
▁plug	-4375
▁polo	-4376
▁pork	-4377
▁prov	-4378
▁puts	-4379
▁rays	-4380
▁real	-4381
▁rece	-4382
▁remo	-4383
▁resp	-4384
▁ribs	-4385
▁roas	-4386
▁robe	-4387
▁rose	-4388
▁scot	-4389
▁seal	-4390
▁sear	-4391
▁sens	-4392
▁sets	-4393
▁shag	-4394
▁shed	-4395
▁slab	-4396
▁sled	-4397
▁sold	-4398
▁sour	-4399
▁sout	-4400
▁spac	-4401
▁stam	-4402
▁stem	-4403
▁stro	-4404
▁sugg	-4405
▁sunf	-4406
▁tags	-4407
▁tang	-4408
▁tarp	-4409
▁taxi	-4410
▁teal	-4411
▁tidy	-4412
▁trim	-4413
▁trip	-4414
▁true	-4415
▁tube	-4416
▁turf	-4417
▁unlo	-4418
▁vast	-4419
▁vibr	-4420
▁vice	-4421
▁vine	-4422
acters	-4423
acting	-4424
ancing	-4425
apenos	-4426
cember	-4427
ckered	-4428
conies	-4429
ecting	-4430
ensils	-4431
ensive	-4432
esters	-4433
forter	-4434
ifying	-4435
knacks	-4436
kshake	-4437
legged	-4438
levard	-4439
licate	-4440
lights	-4441
market	-4442
merged	-4443
onalds	-4444
orange	-4445
oulder	-4446
ournal	-4447
panied	-4448
pening	-4449
ressed	-4450
ricots	-4451
riotic	-4452
roller	-4453
serted	-4454
tained	-4455
tering	-4456
twined	-4457
ussing	-4458
venile	-4459
verted	-4460
▁activ	-4461
▁apron	-4462
▁aspar	-4463
▁audio	-4464
▁beads	-4465
▁beers	-4466
▁belly	-4467
▁bends	-4468
▁bidet	-4469
▁boxed	-4470
▁brist	-4471
▁broth	-4472
▁bunny	-4473
▁cafet	-4474
▁cemet	-4475
▁cents	-4476
▁chews	-4477
▁cigar	-4478
▁cliff	-4479
▁coach	-4480
▁coats	-4481
▁coins	-4482
▁count	-4483
▁crane	-4484
▁crude	-4485
▁curry	-4486
▁dairy	-4487
▁darth	-4488
▁dense	-4489
▁depot	-4490
▁dimly	-4491
▁eight	-4492
▁emoji	-4493
▁enjoy	-4494
▁every	-4495
▁exper	-4496
▁explo	-4497
▁fancy	-4498
▁fives	-4499
▁fixed	-4500
▁flank	-4501
▁flour	-4502
▁flush	-4503
▁focal	-4504
▁force	-4505
▁found	-4506
▁gated	-4507
▁giant	-4508
▁grabs	-4509
▁grand	-4510
▁grips	-4511
▁grown	-4512
▁grows	-4513
▁hairy	-4514
▁heard	-4515
▁heels	-4516
▁helps	-4517
▁holes	-4518
▁hosts	-4519
▁ident	-4520
▁irreg	-4521
▁ivory	-4522
▁kiosk	-4523
▁kitty	-4524
▁knees	-4525
▁knick	-4526
▁lambs	-4527
▁lanes	-4528
▁langu	-4529
▁leaps	-4530
▁leash	-4531
▁lifts	-4532
▁lufth	-4533
▁macro	-4534
▁maneu	-4535
▁masai	-4536
▁names	-4537
▁neigh	-4538
▁niles	-4539
▁notes	-4540
▁okapi	-4541
▁olymp	-4542
▁other	-4543
▁ovens	-4544
▁overf	-4545
▁pairs	-4546
▁parka	-4547
▁pedal	-4548
▁peeks	-4549
▁peers	-4550
▁polit	-4551
▁posts	-4552
▁press	-4553
▁print	-4554
▁pruss	-4555
▁quant	-4556
▁quart	-4557
▁racer	-4558
▁rails	-4559
▁rally	-4560
▁retro	-4561
▁rhino	-4562
▁rings	-4563
▁rises	-4564
▁rough	-4565
▁sails	-4566
▁scape	-4567
▁scout	-4568
▁scram	-4569
▁scrat	-4570
▁sense	-4571
▁seper	-4572
▁shake	-4573
▁sharp	-4574
▁sheer	-4575
▁shell	-4576
▁shoot	-4577
▁sided	-4578
▁sleek	-4579
▁sleep	-4580
▁snout	-4581
▁sofas	-4582
▁solid	-4583
▁stage	-4584
▁start	-4585
▁steak	-4586
▁study	-4587
▁sugar	-4588
▁swims	-4589
▁sword	-4590
▁taxis	-4591
▁techn	-4592
▁tents	-4593
▁tiger	-4594
▁tools	-4595
▁treed	-4596
▁tries	-4597
▁tying	-4598
▁union	-4599
▁urine	-4600
▁users	-4601
▁vader	-4602
▁venue	-4603
▁wagon	-4604
▁waist	-4605
▁whats	-4606
▁wheat	-4607
▁whole	-4608
▁wines	-4609
▁wired	-4610
▁wooly	-4611
▁works	-4612
borhood	-4613
eburger	-4614
ections	-4615
emingly	-4616
icopter	-4617
ifornia	-4618
ihuahua	-4619
ization	-4620
minster	-4621
otional	-4622
painted	-4623
sembled	-4624
vestock	-4625
▁aiming	-4626
▁almost	-4627
▁amtrak	-4628
▁analog	-4629
▁arabic	-4630
▁arcade	-4631
▁artist	-4632
▁attend	-4633
▁author	-4634
▁autumn	-4635
▁awaits	-4636
▁barbed	-4637
▁barbie	-4638
▁basins	-4639
▁begins	-4640
▁blocks	-4641
▁boiled	-4642
▁breads	-4643
▁breeds	-4644
▁bullet	-4645
▁bumper	-4646
▁calcul	-4647
▁called	-4648
▁calves	-4649
▁canned	-4650
▁canvas	-4651
▁castle	-4652
▁checks	-4653
▁cheesy	-4654
▁circle	-4655
▁closet	-4656
▁coated	-4657
▁collar	-4658
▁county	-4659
▁cowboy	-4660
▁croiss	-4661
▁cruise	-4662
▁crumbs	-4663
▁danger	-4664
▁dotted	-4665
▁driver	-4666
▁dumped	-4667
▁dunkin	-4668
▁elbows	-4669
▁enough	-4670
▁eyeing	-4671
▁fabric	-4672
▁faucet	-4673
▁finger	-4674
▁fleece	-4675
▁floats	-4676
▁friend	-4677
▁frisbe	-4678
▁fronts	-4679
▁future	-4680
▁garlic	-4681
▁gazing	-4682
▁geisha	-4683
▁gentle	-4684
▁german	-4685
▁glider	-4686
▁goatee	-4687
▁golden	-4688
▁grinds	-4689
▁groups	-4690
▁hanger	-4691
▁headed	-4692
▁heater	-4693
▁height	-4694
▁hikers	-4695
▁hoodie	-4696
▁hooked	-4697
▁imperf	-4698
▁infant	-4699
▁intern	-4700
▁jungle	-4701
▁keeper	-4702
▁knives	-4703
▁ladies	-4704
▁legged	-4705
▁lemons	-4706
▁lining	-4707
▁lovely	-4708
▁marked	-4709
▁mature	-4710
▁meadow	-4711
▁modest	-4712
▁moored	-4713
▁napkin	-4714
▁neatly	-4715
▁necess	-4716
▁needle	-4717
▁noodle	-4718
▁palace	-4719
▁parent	-4720
▁partly	-4721
▁patrol	-4722
▁peanut	-4723
▁pirate	-4724
▁plains	-4725
▁plenty	-4726
▁pocket	-4727
▁podium	-4728
▁poorly	-4729
▁preser	-4730
▁prices	-4731
▁prints	-4732
▁rabbit	-4733
▁raquet	-4734
▁rather	-4735
▁really	-4736
▁record	-4737
▁relish	-4738
▁ridden	-4739
▁rubber	-4740
▁salads	-4741
▁sample	-4742
▁saucer	-4743
▁scenes	-4744
▁sesame	-4745
▁sewing	-4746
▁shades	-4747
▁shared	-4748
▁shines	-4749
▁shrimp	-4750
▁sights	-4751
▁skater	-4752
▁skills	-4753
▁skinny	-4754
▁slogan	-4755
▁sloped	-4756
▁social	-4757
▁sparse	-4758
▁specim	-4759
▁speeds	-4760
▁sphere	-4761
▁squash	-4762
▁stages	-4763
▁stalls	-4764
▁stereo	-4765
▁stunts	-4766
▁summit	-4767
▁tablet	-4768
▁themed	-4769
▁thomas	-4770
▁toiler	-4771
▁tongue	-4772
▁touris	-4773
▁towing	-4774
▁toyota	-4775
▁transa	-4776
▁trench	-4777
▁trough	-4778
▁trunks	-4779
▁turtle	-4780
▁typing	-4781
▁unique	-4782
▁ventil	-4783
▁vessel	-4784
▁wagons	-4785
▁wallet	-4786
▁washer	-4787
▁wildeb	-4788
▁within	-4789
ccessful	-4790
orabilia	-4791
orcement	-4792
ractable	-4793
▁airline	-4794
▁airshow	-4795
▁america	-4796
▁apparel	-4797
▁artwork	-4798
▁asphalt	-4799
▁balance	-4800
▁barrels	-4801
▁bathing	-4802
▁batters	-4803
▁beading	-4804
▁bedding	-4805
▁berries	-4806
▁besides	-4807
▁blossom	-4808
▁blurred	-4809
▁boiling	-4810
▁bottled	-4811
▁bowling	-4812
▁bricked	-4813
▁brownie	-4814
▁brushes	-4815
▁buggies	-4816
▁burgers	-4817
▁carlton	-4818
▁cartons	-4819
▁caution	-4820
▁challen	-4821
▁chasing	-4822
▁chimney	-4823
▁circuit	-4824
▁climate	-4825
▁closely	-4826
▁columns	-4827
▁compact	-4828
▁cooling	-4829
▁costume	-4830
▁created	-4831
▁crosses	-4832
▁cupcake	-4833
▁cushion	-4834
▁diamond	-4835
▁dipping	-4836
▁dodgers	-4837
▁dresser	-4838
▁elegant	-4839
▁engines	-4840
▁english	-4841
▁exiting	-4842
▁expanse	-4843
▁farmers	-4844
▁fashion	-4845
▁filling	-4846
▁fireman	-4847
▁firemen	-4848
▁fisheye	-4849
▁fixture	-4850
▁flowing	-4851
▁folding	-4852
▁gadgets	-4853
▁girafee	-4854
▁glowing	-4855
▁gourmet	-4856
▁grouped	-4857
▁guiding	-4858
▁hallway	-4859
▁highest	-4860
▁holiday	-4861
▁horizon	-4862
▁housing	-4863
▁huddled	-4864
▁incline	-4865
▁install	-4866
▁instead	-4867
▁italian	-4868
▁jackets	-4869
▁kingdom	-4870
▁kissing	-4871
▁labeled	-4872
▁leaving	-4873
▁lighted	-4874
▁lightly	-4875
▁marches	-4876
▁massive	-4877
▁meeting	-4878
▁milking	-4879
▁necktie	-4880
▁needles	-4881
▁nervous	-4882
▁numbers	-4883
▁nursing	-4884
▁opening	-4885
▁orioles	-4886
▁pacific	-4887
▁pajamas	-4888
▁parents	-4889
▁partial	-4890
▁peering	-4891
▁pelican	-4892
▁penguin	-4893
▁perpend	-4894
▁pickles	-4895
▁pigeons	-4896
▁placing	-4897
▁platter	-4898
▁posters	-4899
▁pouring	-4900
▁prepped	-4901
▁printer	-4902
▁profile	-4903
▁program	-4904
▁puppies	-4905
▁regular	-4906
▁relaxes	-4907
▁repairs	-4908
▁reveals	-4909
▁rubbing	-4910
▁rusting	-4911
▁sailing	-4912
▁scenery	-4913
▁sharing	-4914
▁signage	-4915
▁signals	-4916
▁similar	-4917
▁singing	-4918
▁sleeves	-4919
▁slicing	-4920
▁smashed	-4921
▁speaker	-4922
▁special	-4923
▁sprouts	-4924
▁stating	-4925
▁statues	-4926
▁sunbath	-4927
▁symbols	-4928
▁tangled	-4929
▁taxiing	-4930
▁tending	-4931
▁tightly	-4932
▁tractor	-4933
▁trainer	-4934
▁veggies	-4935
▁vulture	-4936
▁watered	-4937
▁whining	-4938
▁without	-4939
lapidated	-4940
▁actively	-4941
▁activity	-4942
▁antelope	-4943
▁approval	-4944
▁athletes	-4945
▁balances	-4946
▁breaking	-4947
▁carpeted	-4948
▁catchers	-4949
▁cleaning	-4950
▁clusters	-4951
▁colorado	-4952
▁coloured	-4953
▁complete	-4954
▁consists	-4955
▁conveyor	-4956
▁corridor	-4957
▁costumes	-4958
▁cruising	-4959
▁cupboard	-4960
▁cupcakes	-4961
▁currency	-4962
▁december	-4963
▁decorate	-4964
▁delivery	-4965
▁downtown	-4966
▁downward	-4967
▁exterior	-4968
▁facility	-4969
▁followed	-4970
▁forehand	-4971
▁frisbees	-4972
▁grinning	-4973
▁grounded	-4974
▁halfpipe	-4975
▁handlers	-4976
▁handrail	-4977
▁headband	-4978
▁helmeted	-4979
▁historic	-4980
▁hovering	-4981
▁hundreds	-4982
▁incoming	-4983
▁inserted	-4984
▁inspects	-4985
▁inverted	-4986
▁involved	-4987
▁justices	-4988
▁juvenile	-4989
▁labeling	-4990
▁labelled	-4991
▁language	-4992
▁location	-4993
▁marching	-4994
▁medicine	-4995
▁midswing	-4996
▁neckties	-4997
▁onlooker	-4998
▁operated	-4999
▁operates	-5000
▁ordering	-5001
▁ornament	-5002
▁outfield	-5003
▁outhouse	-5004
▁overcast	-5005
▁overlook	-5006
▁paneling	-5007
▁parasail	-5008
▁portrait	-5009
▁pumpkins	-5010
▁quarters	-5011
▁released	-5012
▁releases	-5013
▁ripening	-5014
▁savannah	-5015
▁scooters	-5016
▁separate	-5017
▁sequence	-5018
▁shelving	-5019
▁shoulder	-5020
▁sideways	-5021
▁signpost	-5022
▁situated	-5023
▁slightly	-5024
▁sneakers	-5025
▁spacious	-5026
▁speakers	-5027
▁squirrel	-5028
▁standard	-5029
▁starting	-5030
▁steering	-5031
▁stepping	-5032
▁stripped	-5033
▁stroller	-5034
▁studying	-5035
▁suggests	-5036
▁sunshine	-5037
▁teaching	-5038
▁touching	-5039
▁trailing	-5040
▁utensils	-5041
▁watering	-5042
▁wetsuits	-5043
▁adjusting	-5044
▁airliners	-5045
▁appliance	-5046
▁architect	-5047
▁ascending	-5048
▁asparagus	-5049
▁astronaut	-5050
▁backpacks	-5051
▁balancing	-5052
▁balconies	-5053
▁beginning	-5054
▁billboard	-5055
▁blueberry	-5056
▁bookshelf	-5057
▁cafeteria	-5058
▁carpeting	-5059
▁celebrate	-5060
▁checkered	-5061
▁chihuahua	-5062
▁comforter	-5063
▁computing	-5064
▁conductor	-5065
▁crumbling	-5066
▁cucumbers	-5067
▁currently	-5068
▁dashboard	-5069
▁dumplings	-5070
▁earphones	-5071
▁emergency	-5072
▁employees	-5073
▁entertain	-5074
▁evergreen	-5075
▁figurines	-5076
▁gentleman	-5077
▁halfeaten	-5078
▁identical	-5079
▁irregular	-5080
▁jalapenos	-5081
▁livestock	-5082
▁lufthansa	-5083
▁materials	-5084
▁mcdonalds	-5085
▁midflight	-5086
▁milkshake	-5087
▁motorized	-5088
▁newspaper	-5089
▁obstacles	-5090
▁officials	-5091
▁paperwork	-5092
▁patriotic	-5093
▁processor	-5094
▁propelled	-5095
▁reflected	-5096
▁seasoning	-5097
▁sectional	-5098
▁seemingly	-5099
▁submerged	-5100
▁uniformed	-5101
▁unloading	-5102
▁vibration	-5103
▁advertises	-5104
▁automobile	-5105
▁california	-5106
▁ceremonial	-5107
▁characters	-5108
▁condiments	-5109
▁connecting	-5110
▁decoration	-5111
▁delivering	-5112
▁department	-5113
▁discussing	-5114
▁handlebars	-5115
▁helicopter	-5116
▁indicating	-5117
▁individual	-5118
▁landscaped	-5119
▁magnifying	-5120
▁maintained	-5121
▁protesters	-5122
▁stationary	-5123
▁stoplights	-5124
▁strawberry	-5125
▁successful	-5126
▁undergoing	-5127
▁volleyball	-5128
▁accompanied	-5129
▁businessmen	-5130
▁carnivorous	-5131
▁centerpiece	-5132
▁consumption	-5133
▁contraption	-5134
▁enforcement	-5135
▁expressions	-5136
▁handicapped	-5137
▁individuals	-5138
▁interacting	-5139
▁intertwined	-5140
▁landscaping	-5141
▁memorabilia	-5142
▁overflowing	-5143
▁renovations	-5144
▁restaurants	-5145
▁sightseeing	-5146
▁snowcovered	-5147
▁westminster	-5148
▁windsurfers	-5149
▁cheeseburger	-5150
▁neighborhood	-5151
▁oldfashioned	-5152
▁organization	-5153
▁southwestern	-5154
▁transporting	-5155
▁demonstration	-5156
▁imperfections	-5157
▁international	-5158
▁perpendicular	-5159
▁photographers	-5160
▁refrigerators	-5161
.",	-5162
afm	-5163
coh	-5164
guy	-5165
ika	-5166
kwy	-5167
lbe	-5168
obe	-5169
ova	-5170
pwh	-5171
uwa	-5172
ymm	-5173
▁iw	-5174
afel	-5175
afml	-5176
bama	-5177
bbre	-5178
bird	-5179
carf	-5180
coat	-5181
conn	-5182
cope	-5183
ctac	-5184
evil	-5185
grat	-5186
gypt	-5187
hawk	-5188
hols	-5189
iami	-5190
icha	-5191
ifix	-5192
itng	-5193
krit	-5194
lier	-5195
mely	-5196
nges	-5197
nout	-5198
oggy	-5199
aug	-5200
▁ug	-5201
cups	-5202
mend	-5203
onna	-5204
pons	-5205
prop	-5206
racw	-5207
reme	-5208
risp	-5209
semb	-5210
tret	-5211
usky	-5212
vana	-5213
vewr	-5214
void	-5215
vrat	-5216
wars	-5217
wise	-5218
yham	-5219
▁cyn	-5220
▁haz	-5221
▁hwy	-5222
▁hyb	-5223
▁ios	-5224
▁ips	-5225
▁iri	-5226
▁joh	-5227
▁kiw	-5228
▁nug	-5229
▁odd	-5230
▁rbe	-5231
▁rvo	-5232
▁tik	-5233
▁wod	-5234
▁xbo	-5235
ablbe	-5236
acher	-5237
alani	-5238
ampag	-5239
ampoo	-5240
annas	-5241
array	-5242
asols	-5243
auges	-5244
bandy	-5245
bbrev	-5246
cheal	-5247
cheur	-5248
cient	-5249
conom	-5250
copes	-5251
ctory	-5252
ctual	-5253
darge	-5254
easts	-5255
eeyed	-5256
elery	-5257
empor	-5258
ended	-5259
eriff	-5260
erlin	-5261
etrac	-5262
fffic	-5263
flage	-5264
fnout	-5265
gnant	-5266
gnuts	-5267
gonom	-5268
groun	-5269
haped	-5270
inara	-5271
iolet	-5272
izona	-5273
jured	-5274
kiing	-5275
maxim	-5276
ngesr	-5277
odils	-5278
ofwar	-5279
olume	-5280
orike	-5281
orksh	-5282
oseph	-5283
pened	-5284
plant	-5285
pwhnt	-5286
racwt	-5287
rawls	-5288
resds	-5289
rints	-5290
rison	-5291
riter	-5292
scape	-5293
scill	-5294
sical	-5295
sives	-5296
spber	-5297
strip	-5298
umini	-5299
duc	-5300
nec	-5301
berp	-5302
ecom	-5303
ecue	-5304
phib	-5305
ucch	-5306
ucop	-5307
zily	-5308
anber	-5309
bages	-5310
omber	-5311
oolen	-5312
vious	-5313
walks	-5314
watch	-5315
which	-5316
white	-5317
yards	-5318
ylons	-5319
▁abra	-5320
▁afgh	-5321
▁ages	-5322
▁auto	-5323
▁badm	-5324
▁balt	-5325
▁burg	-5326
▁calz	-5327
▁claw	-5328
▁coca	-5329
▁cops	-5330
▁copy	-5331
▁crib	-5332
▁crop	-5333
▁cuba	-5334
▁curi	-5335
▁damp	-5336
▁deco	-5337
▁digs	-5338
▁drop	-5339
▁dude	-5340
▁eliz	-5341
▁exec	-5342
▁fett	-5343
▁galo	-5344
▁glow	-5345
▁gyro	-5346
▁hawk	-5347
▁hazy	-5348
▁heir	-5349
▁hugs	-5350
▁infl	-5351
▁jars	-5352
▁jaws	-5353
▁jeff	-5354
▁jugs	-5355
▁junk	-5356
▁kara	-5357
▁kuwa	-5358
▁lons	-5359
▁lowh	-5360
▁lowl	-5361
▁luig	-5362
▁mask	-5363
▁moms	-5364
▁much	-5365
▁muzz	-5366
▁nerd	-5367
▁nord	-5368
▁obsc	-5369
▁pads	-5370
▁pala	-5371
▁pawn	-5372
▁peek	-5373
▁pkwy	-5374
▁pulp	-5375
▁radi	-5376
▁roma	-5377
▁roos	-5378
▁rugs	-5379
▁seaw	-5380
▁sheh	-5381
▁simp	-5382
▁sips	-5383
▁tabi	-5384
▁taco	-5385
▁temp	-5386
▁teri	-5387
▁tiki	-5388
▁tons	-5389
▁unpl	-5390
▁util	-5391
▁vesp	-5392
▁vibe	-5393
▁xbox	-5394
aganda	-5395
agonal	-5396
allike	-5397
allowe	-5398
ammnal	-5399
iod	-5400
zio	-5401
ampa	-5402
eque	-5403
ezio	-5404
nald	-5405
owns	-5406
tina	-5407
▁amb	-5408
▁paf	-5409
▁pao	-5410
▁upg	-5411
elina	-5412
isins	-5413
onret	-5414
ystic	-5415
▁amus	-5416
▁bins	-5417
▁guid	-5418
▁kart	-5419
▁lama	-5420
▁othr	-5421
▁pafr	-5422
▁torn	-5423
▁vanc	-5424
ancher	-5425
angets	-5426
anklin	-5427
antily	-5428
anuary	-5429
anyard	-5430
ascope	-5431
astned	-5432
atical	-5433
breros	-5434
caroni	-5435
casing	-5436
commer	-5437
conomy	-5438
ctuary	-5439
ebbled	-5440
eezing	-5441
elcome	-5442
embark	-5443
embers	-5444
ension	-5445
etimes	-5446
ficial	-5447
finish	-5448
grough	-5449
hemian	-5450
herita	-5451
hopper	-5452
ibilia	-5453
icemen	-5454
ichael	-5455
ichoke	-5456
ifaced	-5457
iguana	-5458
illiam	-5459
iobama	-5460
irates	-5461
lendar	-5462
letely	-5463
making	-5464
mitive	-5465
nament	-5466
obatic	-5467
obiles	-5468
oceros	-5469
ogging	-5470
omical	-5471
ooping	-5472
orable	-5473
ordion	-5474
orilla	-5475
packet	-5476
placed	-5477
propoe	-5478
quatic	-5479
remely	-5480
resdsm	-5481
resist	-5482
rimmed	-5483
rought	-5484
russel	-5485
tended	-5486
titles	-5487
tsdale	-5488
ucopia	-5489
ulavew	-5490
undown	-5491
unette	-5492
urious	-5493
utinal	-5494
vanced	-5495
vilion	-5496
warzen	-5497
writer	-5498
▁abrah	-5499
boa	-5500
nny	-5501
boaj	-5502
emnt	-5503
redo	-5504
▁abo	-5505
▁esc	-5506
▁iow	-5507
▁tiv	-5508
boajr	-5509
ffect	-5510
fredo	-5511
ignia	-5512
ismar	-5513
plash	-5514
sings	-5515
umbia	-5516
▁cany	-5517
▁caps	-5518
▁dram	-5519
▁harb	-5520
▁iowa	-5521
▁list	-5522
▁lobs	-5523
▁news	-5524
▁unbo	-5525
boajrd	-5526
erings	-5527
nerton	-5528
singsj	-5529
umemnt	-5530
▁above	-5531
▁acute	-5532
▁added	-5533
▁adjus	-5534
▁adobe	-5535
▁ahead	-5536
▁aimed	-5537
▁alpac	-5538
▁amate	-5539
▁ambul	-5540
▁angel	-5541
▁annot	-5542
▁apart	-5543
▁armed	-5544
▁array	-5545
▁artop	-5546
▁ascot	-5547
▁asymm	-5548
▁attem	-5549
▁await	-5550
▁beefn	-5551
▁berry	-5552
▁blaze	-5553
▁blows	-5554
▁brass	-5555
▁budap	-5556
▁burnt	-5557
▁calls	-5558
▁casts	-5559
▁chrom	-5560
▁cordo	-5561
▁cornf	-5562
▁crack	-5563
▁craft	-5564
▁crean	-5565
▁crepe	-5566
▁crest	-5567
▁crisp	-5568
▁crook	-5569
▁cubes	-5570
▁dared	-5571
▁david	-5572
▁delta	-5573
▁divid	-5574
▁docks	-5575
▁downp	-5576
▁dozen	-5577
▁dubai	-5578
▁egypt	-5579
▁entre	-5580
▁entry	-5581
▁erase	-5582
▁escal	-5583
▁escor	-5584
▁expla	-5585
▁faced	-5586
▁falls	-5587
▁favor	-5588
▁firer	-5589
▁fishy	-5590
▁flaws	-5591
▁frogs	-5592
▁funer	-5593
▁furry	-5594
▁furth	-5595
▁gloss	-5596
▁gooey	-5597
▁gowns	-5598
▁greek	-5599
mod	-5600
arec	-5601
goon	-5602
ieth	-5603
karm	-5604
rade	-5605
▁eva	-5606
▁sbs	-5607
abeth	-5608
isely	-5609
licts	-5610
ments	-5611
opper	-5612
perds	-5613
perre	-5614
plate	-5615
ually	-5616
▁mean	-5617
▁mech	-5618
▁nail	-5619
▁spok	-5620
aments	-5621
cisely	-5622
ctures	-5623
idling	-5624
modate	-5625
ocross	-5626
▁alcoh	-5627
▁blade	-5628
▁bloom	-5629
▁cambo	-5630
▁flash	-5631
▁flyer	-5632
▁hairc	-5633
▁halfz	-5634
▁hoofs	-5635
▁hoola	-5636
▁husky	-5637
▁instq	-5638
▁ipswi	-5639
▁itguy	-5640
▁janes	-5641
▁jones	-5642
▁kiwis	-5643
▁learn	-5644
▁lettu	-5645
▁lifej	-5646
▁lifes	-5647
▁limes	-5648
▁limit	-5649
▁links	-5650
▁looms	-5651
▁luigi	-5652
▁marij	-5653
▁mcand	-5654
▁means	-5655
▁medie	-5656
▁miami	-5657
▁micro	-5658
▁minor	-5659
▁misty	-5660
▁mitts	-5661
▁mixer	-5662
▁modem	-5663
▁modif	-5664
▁mules	-5665
▁named	-5666
▁nasty	-5667
▁needs	-5668
▁negle	-5669
▁nokia	-5670
▁oconn	-5671
▁offsh	-5672
▁oiled	-5673
▁palau	-5674
▁palle	-5675
▁paoak	-5676
▁paste	-5677
▁peace	-5678
▁pened	-5679
▁petal	-5680
▁poppy	-5681
▁popul	-5682
▁potty	-5683
▁pride	-5684
▁quest	-5685
▁radio	-5686
▁ramen	-5687
▁recog	-5688
▁recup	-5689
▁regat	-5690
▁reins	-5691
▁remod	-5692
▁retri	-5693
▁rugby	-5694
▁sauls	-5695
▁scott	-5696
▁semia	-5697
▁semis	-5698
▁shady	-5699
aked	-5700
dian	-5701
mond	-5702
onda	-5703
yond	-5704
▁elf	-5705
▁pak	-5706
amole	-5707
anian	-5708
ocked	-5709
ramid	-5710
sbian	-5711
▁bred	-5712
▁cash	-5713
▁cian	-5714
▁cubs	-5715
▁hash	-5716
▁mixd	-5717
▁purs	-5718
chmond	-5719
ebased	-5720
entive	-5721
issing	-5722
onders	-5723
vratil	-5724
yramid	-5725
▁alond	-5726
▁clive	-5727
▁damas	-5728
▁detro	-5729
▁drift	-5730
▁edges	-5731
▁equid	-5732
▁helip	-5733
▁helle	-5734
▁leave	-5735
▁mixdq	-5736
▁peach	-5737
▁pursu	-5738
▁races	-5739
▁ramps	-5740
▁seash	-5741
▁sheph	-5742
▁silou	-5743
▁slips	-5744
▁sniff	-5745
▁sodas	-5746
▁spani	-5747
▁spins	-5748
▁spons	-5749
▁spray	-5750
▁staff	-5751
▁stark	-5752
▁steal	-5753
▁steer	-5754
▁steph	-5755
▁strap	-5756
▁striv	-5757
▁strut	-5758
▁studs	-5759
▁sunex	-5760
▁takeo	-5761
▁tampa	-5762
▁teena	-5763
▁terra	-5764
▁texas	-5765
▁there	-5766
▁tiers	-5767
▁tires	-5768
▁tivvy	-5769
▁tomot	-5770
▁troph	-5771
▁turns	-5772
▁tuxed	-5773
▁twist	-5774
▁ultra	-5775
▁uncle	-5776
▁undis	-5777
▁units	-5778
▁unlit	-5779
▁upper	-5780
▁uturn	-5781
▁vespa	-5782
▁vesse	-5783
▁villa	-5784
▁visor	-5785
▁wedge	-5786
▁whose	-5787
▁woden	-5788
▁wreck	-5789
▁wrong	-5790
▁xbark	-5791
▁yacht	-5792
▁youre	-5793
▁zucch	-5794
acamole	-5795
ackling	-5796
albandy	-5797
alistic	-5798
anberry	-5799
ize	-5800
niz	-5801
east	-5802
etiz	-5803
orpe	-5804
phia	-5805
shot	-5806
sung	-5807
▁goi	-5808
▁jew	-5809
▁job	-5810
▁los	-5811
▁lox	-5812
▁ons	-5813
astan	-5814
serts	-5815
▁abut	-5816
▁cuff	-5817
▁dera	-5818
▁drum	-5819
▁kale	-5820
▁lock	-5821
▁midd	-5822
▁midj	-5823
▁potl	-5824
▁viol	-5825
elphia	-5826
estors	-5827
etizer	-5828
father	-5829
ishing	-5830
▁barri	-5831
▁barry	-5832
▁bespe	-5833
▁campb	-5834
▁coals	-5835
▁frost	-5836
▁goble	-5837
▁goers	-5838
▁jewel	-5839
▁linda	-5840
▁recei	-5841
▁seals	-5842
▁snugg	-5843
angular	-5844
anskrit	-5845
arecrow	-5846
atebook	-5847
berpunk	-5848
colored	-5849
ctacled	-5850
delphia	-5851
ecomick	-5852
ementos	-5853
entieth	-5854
entions	-5855
eranian	-5856
eringue	-5857
ersions	-5858
essions	-5859
etracta	-5860
etrical	-5861
ffodils	-5862
gonomic	-5863
icature	-5864
ificent	-5865
itively	-5866
itngesr	-5867
karmill	-5868
kington	-5869
maximum	-5870
nizable	-5871
onnaise	-5872
orikeet	-5873
othorpe	-5874
pective	-5875
racheal	-5876
ractive	-5877
raveled	-5878
ributes	-5879
ription	-5880
ropping	-5881
roument	-5882
rowsing	-5883
rumemnt	-5884
tacular	-5885
through	-5886
trimmed	-5887
uminium	-5888
unchuck	-5889
undance	-5890
ustable	-5891
uzzling	-5892
versity	-5893
warzene	-5894
▁acting	-5895
▁aftern	-5896
▁agains	-5897
▁alpaca	-5898
▁aquari	-5899
aco	-5900
the	-5901
alty	-5902
caco	-5903
odes	-5904
ould	-5905
▁ecl	-5906
▁luc	-5907
acter	-5908
thing	-5909
▁chac	-5910
▁curt	-5911
▁dont	-5912
▁dril	-5913
▁flas	-5914
▁geom	-5915
▁kans	-5916
▁kthe	-5917
▁swif	-5918
ansico	-5919
atched	-5920
cacola	-5921
cision	-5922
ethern	-5923
istive	-5924
marine	-5925
mbling	-5926
ouched	-5927
presso	-5928
▁conif	-5929
▁drill	-5930
▁eclip	-5931
▁fores	-5932
▁lucia	-5933
▁plans	-5934
▁stuck	-5935
▁turnt	-5936
▁would	-5937
touched	-5938
▁artery	-5939
▁artoph	-5940
▁assemb	-5941
▁attach	-5942
▁attack	-5943
▁awards	-5944
▁badmin	-5945
▁baring	-5946
▁barren	-5947
▁barric	-5948
▁batman	-5949
▁become	-5950
▁beware	-5951
▁bidets	-5952
▁bismar	-5953
▁boeing	-5954
▁boezio	-5955
▁bookin	-5956
▁bookst	-5957
▁booths	-5958
▁bought	-5959
▁bowels	-5960
▁breaks	-5961
▁breath	-5962
▁buddha	-5963
▁cabins	-5964
▁cannot	-5965
▁canyon	-5966
▁cardig	-5967
▁caught	-5968
▁celery	-5969
▁chacar	-5970
▁cherry	-5971
▁chicks	-5972
▁column	-5973
▁cooker	-5974
▁cooler	-5975
▁copper	-5976
▁craggy	-5977
▁crates	-5978
▁crawls	-5979
▁create	-5980
▁cycles	-5981
▁damask	-5982
▁darken	-5983
▁darkly	-5984
▁denver	-5985
▁detail	-5986
▁develv	-5987
▁diaper	-5988
▁direct	-5989
▁disney	-5990
▁dodger	-5991
▁drager	-5992
▁dragon	-5993
▁drawer	-5994
▁effect	-5995
▁elling	-5996
▁encoun	-5997
▁engage	-5998
▁enjoys	-5999
mps	-6000
akes	-6001
bies	-6002
erek	-6003
esto	-6004
ickr	-6005
mpol	-6006
omeg	-6007
oven	-6008
ramp	-6009
ties	-6010
▁atl	-6011
▁est	-6012
▁jud	-6013
▁mov	-6014
blems	-6015
conut	-6016
lamps	-6017
ogram	-6018
omegr	-6019
otton	-6020
wning	-6021
▁avid	-6022
▁dani	-6023
▁dayb	-6024
▁doct	-6025
▁flam	-6026
▁metr	-6027
▁rims	-6028
▁slap	-6029
▁stov	-6030
▁test	-6031
▁vest	-6032
▁wade	-6033
arkler	-6034
ellies	-6035
ggress	-6036
ombies	-6037
raiger	-6038
togram	-6039
unning	-6040
▁attra	-6041
▁bakes	-6042
▁bored	-6043
▁curve	-6044
▁derek	-6045
▁movie	-6046
▁mural	-6047
▁outsk	-6048
▁pesto	-6049
▁pokes	-6050
▁regul	-6051
▁tubes	-6052
▁woven	-6053
fraiger	-6054
mpoline	-6055
omegran	-6056
▁atlant	-6057
▁attain	-6058
▁awning	-6059
▁babies	-6060
▁badges	-6061
▁bomber	-6062
▁boxcar	-6063
▁cotton	-6064
▁daybre	-6065
▁entran	-6066
▁ethern	-6067
▁expire	-6068
▁facial	-6069
▁famous	-6070
▁favors	-6071
▁fences	-6072
▁fennec	-6073
▁filter	-6074
▁fixing	-6075
▁flasks	-6076
▁flickr	-6077
▁floods	-6078
▁folder	-6079
▁frames	-6080
▁france	-6081
▁fremon	-6082
▁frozen	-6083
▁funnel	-6084
▁galley	-6085
▁gallop	-6086
▁gauges	-6087
▁gently	-6088
▁gglass	-6089
▁ginger	-6090
▁glides	-6091
▁glossy	-6092
▁grated	-6093
▁gridle	-6094
▁guests	-6095
▁gunman	-6096
▁gymnas	-6097
▁haging	-6098
▁halter	-6099
hub	-6100
ipr	-6101
iprl	-6102
ivel	-6103
oial	-6104
rent	-6105
▁uns	-6106
atory	-6107
ckery	-6108
dless	-6109
ested	-6110
etted	-6111
hubar	-6112
ilted	-6113
mired	-6114
▁cors	-6115
▁guin	-6116
▁marm	-6117
▁mars	-6118
▁nook	-6119
▁sunk	-6120
▁sunn	-6121
▁trio	-6122
▁unis	-6123
astika	-6124
erical	-6125
gratul	-6126
hubarb	-6127
inkets	-6128
opment	-6129
▁aiprl	-6130
▁arial	-6131
▁baker	-6132
▁cords	-6133
▁huger	-6134
▁march	-6135
▁marri	-6136
▁perum	-6137
▁stars	-6138
▁trike	-6139
earbook	-6140
gerated	-6141
teroial	-6142
▁cocker	-6143
▁crowds	-6144
▁golfer	-6145
▁guinea	-6146
▁halves	-6147
▁hamper	-6148
▁hauler	-6149
▁havana	-6150
▁headon	-6151
▁heated	-6152
▁heirlo	-6153
▁highch	-6154
▁higher	-6155
▁hovers	-6156
▁humans	-6157
▁hybrid	-6158
▁iguana	-6159
▁inflat	-6160
▁intell	-6161
▁ironic	-6162
▁johnny	-6163
▁joined	-6164
▁joseph	-6165
▁judged	-6166
▁juices	-6167
▁kansas	-6168
▁kindle	-6169
▁labels	-6170
▁lagoon	-6171
▁lassos	-6172
▁latest	-6173
▁lazily	-6174
▁lclose	-6175
▁leaved	-6176
▁liddle	-6177
▁linden	-6178
▁losing	-6179
▁lunges	-6180
▁luxury	-6181
▁magnet	-6182
▁makeup	-6183
▁marmal	-6184
▁mating	-6185
▁mechan	-6186
▁medics	-6187
▁medium	-6188
▁melons	-6189
▁melted	-6190
▁member	-6191
▁milked	-6192
▁models	-6193
▁monora	-6194
▁mopeds	-6195
▁mouths	-6196
▁mystic	-6197
▁needed	-6198
▁nonret	-6199
dl	-6200
dlz	-6201
lyd	-6202
xly	-6203
ably	-6204
eyre	-6205
haus	-6206
hlyd	-6207
ndlz	-6208
nist	-6209
oice	-6210
otto	-6211
ours	-6212
ully	-6213
▁dro	-6214
▁emb	-6215
▁hey	-6216
agous	-6217
angar	-6218
cular	-6219
esped	-6220
hlyde	-6221
indly	-6222
nhaus	-6223
okoon	-6224
ourse	-6225
ulton	-6226
vated	-6227
▁enth	-6228
▁fles	-6229
▁gull	-6230
▁otto	-6231
▁pret	-6232
▁rush	-6233
atndlz	-6234
kinned	-6235
nistic	-6236
umably	-6237
önhaus	-6238
▁broad	-6239
▁cheet	-6240
▁embro	-6241
▁files	-6242
▁flesh	-6243
▁floyd	-6244
▁fully	-6245
▁hours	-6246
▁ketch	-6247
▁label	-6248
▁pretz	-6249
▁reser	-6250
▁resid	-6251
▁stalk	-6252
▁voice	-6253
angaroo	-6254
espedes	-6255
inesses	-6256
ousting	-6257
▁aboard	-6258
▁baltim	-6259
▁bigger	-6260
▁boxers	-6261
▁cheeta	-6262
▁drople	-6263
▁enthus	-6264
▁fulton	-6265
▁jetway	-6266
▁jumper	-6267
▁lineup	-6268
▁nordic	-6269
▁nudges	-6270
▁nurses	-6271
▁oiling	-6272
▁online	-6273
▁onsite	-6274
▁oriole	-6275
▁oscill	-6276
▁padres	-6277
▁pantry	-6278
▁pantyh	-6279
▁pasted	-6280
▁paused	-6281
▁period	-6282
▁petted	-6283
▁picker	-6284
▁pigeon	-6285
▁plaque	-6286
▁plated	-6287
▁polaro	-6288
▁polish	-6289
▁powell	-6290
▁predom	-6291
▁proven	-6292
▁proves	-6293
▁proxim	-6294
▁pullin	-6295
▁pulpit	-6296
▁pushed	-6297
▁pushes	-6298
▁pylons	-6299
oti	-6300
agie	-6301
agle	-6302
icag	-6303
port	-6304
▁sok	-6305
amins	-6306
erris	-6307
esses	-6308
icago	-6309
othic	-6310
othie	-6311
ruist	-6312
tches	-6313
▁broc	-6314
▁clin	-6315
▁goti	-6316
▁perf	-6317
▁reag	-6318
▁scub	-6319
▁sock	-6320
▁sone	-6321
▁vacu	-6322
▁wiim	-6323
uation	-6324
▁amoun	-6325
▁basem	-6326
▁canoe	-6327
▁eagle	-6328
▁fines	-6329
▁floss	-6330
▁italy	-6331
▁layer	-6332
▁meats	-6333
▁plume	-6334
▁scuba	-6335
▁skint	-6336
▁sloth	-6337
▁waver	-6338
angeles	-6339
duation	-6340
itamins	-6341
kboajrd	-6342
▁amount	-6343
▁arches	-6344
▁clinic	-6345
▁ferris	-6346
▁fruist	-6347
▁gothic	-6348
▁handed	-6349
▁hangar	-6350
▁hisher	-6351
▁hoagie	-6352
▁mantle	-6353
▁pedalv	-6354
▁photoc	-6355
▁photoj	-6356
▁quiche	-6357
▁racers	-6358
▁readym	-6359
▁reagan	-6360
▁recumb	-6361
▁reduce	-6362
▁refere	-6363
▁reflec	-6364
▁regent	-6365
▁remain	-6366
▁repres	-6367
▁respon	-6368
▁rested	-6369
▁resurf	-6370
▁retrie	-6371
▁review	-6372
▁roller	-6373
▁roofed	-6374
▁rushes	-6375
▁saddle	-6376
▁sailbo	-6377
▁salade	-6378
▁salmon	-6379
▁schwal	-6380
▁search	-6381
▁sensor	-6382
▁servic	-6383
▁sfnout	-6384
▁shaggy	-6385
▁shares	-6386
▁sheeps	-6387
▁shehan	-6388
▁siding	-6389
▁simple	-6390
▁simply	-6391
▁skiier	-6392
▁skulls	-6393
▁sleeve	-6394
▁slides	-6395
▁smiley	-6396
▁smoggy	-6397
▁snacks	-6398
▁southw	-6399
:.	-6400
uj	-6401
app	-6402
cti	-6403
cue	-6404
eme	-6405
xuj	-6406
gles	-6407
hold	-6408
inde	-6409
meat	-6410
▁bin	-6411
▁ble	-6412
▁gap	-6413
▁gut	-6414
▁mis	-6415
▁sat	-6416
amist	-6417
apers	-6418
ckled	-6419
escue	-6420
locks	-6421
ormat	-6422
xujte	-6423
▁adds	-6424
▁bapp	-6425
▁dome	-6426
▁jams	-6427
▁kill	-6428
▁lump	-6429
▁mail	-6430
▁misc	-6431
▁spea	-6432
▁swed	-6433
aneled	-6434
attice	-6435
cation	-6436
eating	-6437
gument	-6438
indeer	-6439
oggles	-6440
▁backl	-6441
▁blend	-6442
▁cacti	-6443
▁caser	-6444
▁lacks	-6445
▁lumps	-6446
▁shine	-6447
▁stump	-6448
▁wallp	-6449
amistng	-6450
angling	-6451
▁abbrev	-6452
▁biking	-6453
▁colore	-6454
▁decked	-6455
▁gutter	-6456
▁lotion	-6457
▁sander	-6458
▁scheme	-6459
▁spears	-6460
▁spider	-6461
▁spoked	-6462
▁sporty	-6463
▁squats	-6464
▁statos	-6465
▁steves	-6466
▁stoone	-6467
▁stoves	-6468
▁strivg	-6469
▁styled	-6470
▁sunnyd	-6471
▁supply	-6472
▁surfac	-6473
▁sweden	-6474
▁swivel	-6475
▁teenag	-6476
▁teleph	-6477
▁thatch	-6478
▁theyre	-6479
▁tiered	-6480
▁tiling	-6481
▁tilted	-6482
▁trails	-6483
▁transf	-6484
▁tripoc	-6485
▁twisty	-6486
▁typicb	-6487
▁unders	-6488
▁unison	-6489
▁uphols	-6490
▁useful	-6491
▁vacuum	-6492
▁verteb	-6493
▁vessef	-6494
▁violet	-6495
▁visual	-6496
▁volume	-6497
▁wander	-6498
▁warmer	-6499
log	-6500
oto	-6501
uct	-6502
yal	-6503
▁rv	-6504
▁ry	-6505
gger	-6506
illy	-6507
ples	-6508
wire	-6509
▁add	-6510
▁len	-6511
▁rul	-6512
▁rye	-6513
ayaks	-6514
ccine	-6515
epend	-6516
erget	-6517
ipped	-6518
tures	-6519
xtric	-6520
▁alla	-6521
▁coin	-6522
▁ends	-6523
▁fine	-6524
▁geor	-6525
▁mont	-6526
▁prom	-6527
▁racc	-6528
▁rand	-6529
▁scan	-6530
▁slim	-6531
▁slow	-6532
atible	-6533
uccine	-6534
zammal	-6535
▁alter	-6536
▁colle	-6537
▁foodb	-6538
▁glows	-6539
▁guard	-6540
▁iiera	-6541
▁lengh	-6542
▁ricks	-6543
▁royal	-6544
▁ruler	-6545
▁wares	-6546
▁whale	-6547
▁windy	-6548
ergetic	-6549
estures	-6550
ipboard	-6551
mobiles	-6552
taining	-6553
▁antics	-6554
▁browns	-6555
▁comple	-6556
▁concea	-6557
▁george	-6558
▁goblet	-6559
▁kayaks	-6560
▁necked	-6561
▁random	-6562
▁wedges	-6563
▁whites	-6564
▁wiimot	-6565
▁wilted	-6566
▁windso	-6567
▁windup	-6568
▁womens	-6569
▁woolen	-6570
▁woolly	-6571
▁worked	-6572
▁wrench	-6573
▁yorksh	-6574
▁zhlyde	-6575
alloween	-6576
andering	-6577
apricots	-6578
atndlzes	-6579
bohemian	-6580
commerce	-6581
cropping	-6582
designed	-6583
dgerator	-6584
ecolored	-6585
ecomicke	-6586
emembers	-6587
esticide	-6588
finished	-6589
oribilia	-6590
ournalis	-6591
oustache	-6592
phibious	-6593
resdsmed	-6594
resident	-6595
structed	-6596
terested	-6597
tretched	-6598
ulavewdd	-6599
aln	-6600
fore	-6601
ride	-6602
ript	-6603
wear	-6604
▁ors	-6605
▁ort	-6606
▁phi	-6607
▁urn	-6608
aving	-6609
cifix	-6610
erses	-6611
oment	-6612
panic	-6613
ycled	-6614
▁beam	-6615
▁cock	-6616
▁dine	-6617
▁horn	-6618
▁kore	-6619
▁soil	-6620
▁stra	-6621
▁togo	-6622
forest	-6623
orious	-6624
riving	-6625
▁canop	-6626
▁colin	-6627
▁conce	-6628
▁deter	-6629
▁dryer	-6630
▁marsh	-6631
▁motes	-6632
▁noses	-6633
▁ortiz	-6634
▁peple	-6635
▁phila	-6636
▁tvand	-6637
▁usage	-6638
section	-6639
terwear	-6640
wheeled	-6641
▁cockat	-6642
▁crusty	-6643
▁deterg	-6644
▁exteri	-6645
▁korean	-6646
▁moment	-6647
▁script	-6648
▁smafml	-6649
▁straps	-6650
▁thumbs	-6651
▁tinted	-6652
▁violin	-6653
atically	-6654
ventions	-6655
ycolored	-6656
ysically	-6657
önhausen	-6658
▁abraham	-6659
▁accents	-6660
▁activia	-6661
▁actress	-6662
▁acxujte	-6663
▁adelina	-6664
▁adjusts	-6665
▁admired	-6666
▁aggress	-6667
▁alcohol	-6668
▁aligned	-6669
▁allowed	-6670
▁amateur	-6671
▁amongst	-6672
▁anchors	-6673
▁angeles	-6674
▁animalp	-6675
▁anticip	-6676
▁applied	-6677
▁arizona	-6678
▁arrayed	-6679
▁ascends	-6680
▁astride	-6681
▁attempt	-6682
▁babylog	-6683
▁backlit	-6684
▁backlot	-6685
▁banners	-6686
▁barbers	-6687
▁barking	-6688
▁basball	-6689
▁baseman	-6690
▁basemen	-6691
▁beverly	-6692
▁bidding	-6693
▁blocked	-6694
▁booklet	-6695
▁breaded	-6696
▁brightl	-6697
▁britain	-6698
▁buckled	-6699
ew	-6700
bie	-6701
izz	-6702
nut	-6703
rof	-6704
uto	-6705
▁oc	-6706
aker	-6707
ater	-6708
cars	-6709
eild	-6710
ifel	-6711
odro	-6712
onds	-6713
rofo	-6714
roof	-6715
▁coa	-6716
▁cob	-6717
▁dvd	-6718
▁nut	-6719
▁vie	-6720
etter	-6721
ewers	-6722
iment	-6723
odros	-6724
water	-6725
▁acro	-6726
▁chat	-6727
▁coop	-6728
▁cove	-6729
▁deod	-6730
▁luck	-6731
▁neut	-6732
▁nutr	-6733
▁reac	-6734
▁rect	-6735
▁rout	-6736
▁scat	-6737
▁sole	-6738
▁thim	-6739
izzard	-6740
rofoam	-6741
wodros	-6742
▁acrob	-6743
▁allee	-6744
▁backb	-6745
▁bonds	-6746
▁comes	-6747
▁diner	-6748
▁disin	-6749
▁dubou	-6750
▁eifel	-6751
▁flore	-6752
▁laund	-6753
▁lucky	-6754
▁necks	-6755
▁pared	-6756
▁plush	-6757
▁pluto	-6758
▁roads	-6759
▁solem	-6760
▁surfb	-6761
▁surve	-6762
amliner	-6763
boarder	-6764
curtain	-6765
station	-6766
▁backed	-6767
▁better	-6768
▁chatea	-6769
▁cooper	-6770
▁deodor	-6771
▁gaming	-6772
▁inform	-6773
▁pickel	-6774
▁reacts	-6775
▁routin	-6776
▁shaker	-6777
▁solemn	-6778
▁surfba	-6779
▁torbie	-6780
▁walnut	-6781
▁acrobat	-6782
▁backing	-6783
▁buddies	-6784
▁bundled	-6785
▁burgund	-6786
▁buskers	-6787
▁butcher	-6788
▁buttern	-6789
▁butting	-6790
▁cacheur	-6791
▁calzone	-6792
▁camping	-6793
▁candies	-6794
▁careful	-6795
▁champag	-6796
▁charger	-6797
▁chateau	-6798
▁cheetah	-6799
▁nd	-6800
anke	-6801
dges	-6802
ghts	-6803
tail	-6804
▁deg	-6805
▁thd	-6806
▁tof	-6807
▁wif	-6808
ebase	-6809
ental	-6810
ounce	-6811
▁bend	-6812
▁buri	-6813
▁last	-6814
▁loop	-6815
▁nect	-6816
▁sigh	-6817
▁toes	-6818
▁tofu	-6819
▁toss	-6820
▁wifi	-6821
▁word	-6822
ankees	-6823
ondoli	-6824
▁baths	-6825
▁beaks	-6826
▁diver	-6827
▁grove	-6828
▁hitch	-6829
▁overh	-6830
▁thdin	-6831
▁vinyl	-6832
ducting	-6833
▁bathed	-6834
▁buried	-6835
▁degree	-6836
▁dental	-6837
▁hierry	-6838
▁nectar	-6839
▁outing	-6840
▁pounce	-6841
▁retail	-6842
▁rights	-6843
▁setter	-6844
▁snowed	-6845
▁tossed	-6846
▁tuxedo	-6847
▁unsure	-6848
▁bridges	-6849
▁burners	-6850
▁chopped	-6851
▁circles	-6852
▁cleaned	-6853
▁climber	-6854
▁clothed	-6855
▁cluster	-6856
▁coaches	-6857
▁coconut	-6858
▁combing	-6859
▁commerc	-6860
▁company	-6861
▁compass	-6862
▁compute	-6863
▁concept	-6864
▁concert	-6865
▁conifer	-6866
▁content	-6867
▁convers	-6868
▁cooffee	-6869
▁cookies	-6870
▁cornfla	-6871
▁corsage	-6872
▁cracked	-6873
▁crazing	-6874
▁crumble	-6875
▁current	-6876
▁curtiss	-6877
▁curving	-6878
▁cyclist	-6879
▁dampers	-6880
▁defaced	-6881
▁descent	-6882
▁destroy	-6883
▁detroit	-6884
▁distort	-6885
▁divided	-6886
▁docking	-6887
▁doctors	-6888
▁dodging	-6889
▁dusting	-6890
▁eclipse	-6891
▁economy	-6892
▁embroid	-6893
▁enclose	-6894
▁engages	-6895
▁enjoyed	-6896
▁enthusi	-6897
▁epropoe	-6898
▁estatic	-6899
jm	-6900
aua	-6901
ays	-6902
nns	-6903
onk	-6904
▁bz	-6905
▁fh	-6906
ands	-6907
anis	-6908
gery	-6909
rone	-6910
ynns	-6911
▁hur	-6912
▁inc	-6913
▁kab	-6914
▁mow	-6915
▁mph	-6916
▁sex	-6917
▁sjm	-6918
▁syr	-6919
akaua	-6920
andel	-6921
ecate	-6922
ennis	-6923
erted	-6924
osing	-6925
ronze	-6926
xture	-6927
▁bits	-6928
▁bzas	-6929
▁cant	-6930
▁cind	-6931
▁dryw	-6932
▁honk	-6933
▁mind	-6934
▁nine	-6935
▁pies	-6936
▁seed	-6937
▁tool	-6938
▁tvop	-6939
cennis	-6940
ixture	-6941
keball	-6942
▁basil	-6943
▁bells	-6944
▁caram	-6945
▁conta	-6946
▁evans	-6947
▁graph	-6948
▁incre	-6949
▁kabul	-6950
▁ladys	-6951
▁lasso	-6952
▁lynns	-6953
▁minds	-6954
▁mower	-6955
▁prone	-6956
▁score	-6957
▁slide	-6958
▁state	-6959
▁stays	-6960
▁syrup	-6961
▁tvopb	-6962
▁vying	-6963
alakaua	-6964
ouflage	-6965
picious	-6966
ronting	-6967
▁bronze	-6968
▁cinder	-6969
▁falcon	-6970
▁hurdle	-6971
▁nearly	-6972
▁sjmall	-6973
▁spices	-6974
▁swingh	-6975
▁thicks	-6976
▁tights	-6977
▁walled	-6978
andelier	-6979
▁basting	-6980
▁caramel	-6981
▁contact	-6982
▁demands	-6983
▁drywall	-6984
▁earlier	-6985
▁execute	-6986
▁expired	-6987
▁expires	-6988
▁explore	-6989
▁exposed	-6990
▁exposes	-6991
▁extends	-6992
▁factory	-6993
▁failing	-6994
▁falafel	-6995
▁familly	-6996
▁figures	-6997
▁flaming	-6998
▁flanked	-6999
nse	-7000
pad	-7001
umm	-7002
wit	-7003
▁id	-7004
ades	-7005
eest	-7006
leam	-7007
outs	-7008
ummy	-7009
with	-7010
▁gom	-7011
▁hue	-7012
▁may	-7013
▁nin	-7014
acket	-7015
itter	-7016
orter	-7017
ssell	-7018
▁bnse	-7019
▁boot	-7020
▁dell	-7021
▁idle	-7022
▁mein	-7023
▁rise	-7024
▁sake	-7025
▁sash	-7026
▁spat	-7027
▁unse	-7028
▁wiff	-7029
earing	-7030
otards	-7031
▁gleam	-7032
▁gomes	-7033
▁lwith	-7034
▁pound	-7035
▁struc	-7036
▁whisk	-7037
▁yummy	-7038
mendous	-7039
▁beauty	-7040
▁breast	-7041
▁cookie	-7042
▁equids	-7043
▁erotic	-7044
▁leaned	-7045
▁medway	-7046
▁ninety	-7047
▁shelfs	-7048
▁strucr	-7049
▁unseen	-7050
▁wiffle	-7051
▁archway	-7052
▁bearded	-7053
▁certain	-7054
▁flushed	-7055
▁flyiing	-7056
▁focuses	-7057
▁footing	-7058
▁forests	-7059
▁fremont	-7060
▁gallons	-7061
▁garages	-7062
▁gardens	-7063
▁gazelle	-7064
▁gliding	-7065
▁goggles	-7066
▁gondoli	-7067
▁gorilla	-7068
▁growers	-7069
▁haircut	-7070
▁halfhor	-7071
▁halfway	-7072
▁hammock	-7073
▁handing	-7074
▁handled	-7075
▁harness	-7076
▁hatcher	-7077
▁hauling	-7078
▁heading	-7079
▁heights	-7080
▁herring	-7081
▁holders	-7082
▁hunched	-7083
▁hyperre	-7084
▁indiana	-7085
▁infield	-7086
▁injured	-7087
▁intelle	-7088
▁interes	-7089
▁interst	-7090
▁ipswich	-7091
▁ironing	-7092
▁january	-7093
▁jellies	-7094
▁jewelry	-7095
▁jogging	-7096
▁journal	-7097
▁juggles	-7098
▁karaoke	-7099
ogy	-7100
tin	-7101
▁bc	-7102
asts	-7103
aver	-7104
nold	-7105
olph	-7106
pair	-7107
rint	-7108
very	-7109
▁dup	-7110
▁mog	-7111
▁pil	-7112
▁rim	-7113
ables	-7114
erate	-7115
hette	-7116
inate	-7117
ology	-7118
oodle	-7119
ouver	-7120
unger	-7121
valry	-7122
verts	-7123
ximat	-7124
▁hell	-7125
▁late	-7126
▁paid	-7127
▁pare	-7128
▁pike	-7129
▁sell	-7130
▁smal	-7131
▁sort	-7132
▁tide	-7133
▁ward	-7134
closed	-7135
iation	-7136
iginal	-7137
isable	-7138
lowers	-7139
olphin	-7140
repair	-7141
▁avery	-7142
▁dread	-7143
▁pilot	-7144
▁rover	-7145
▁tight	-7146
▁trace	-7147
visable	-7148
▁arnold	-7149
▁beyond	-7150
▁buying	-7151
▁cables	-7152
▁crouch	-7153
▁exotic	-7154
▁father	-7155
▁guidel	-7156
▁kettle	-7157
▁moguls	-7158
▁peruma	-7159
▁poodle	-7160
▁sittin	-7161
▁stable	-7162
▁wiener	-7163
ximately	-7164
▁adverts	-7165
▁airship	-7166
▁cavalry	-7167
▁cropped	-7168
▁dolphin	-7169
▁eggcups	-7170
▁funeral	-7171
▁germany	-7172
▁ketchup	-7173
▁knocked	-7174
▁kuwaiti	-7175
▁laundry	-7176
▁lecture	-7177
▁lesbian	-7178
▁letters	-7179
▁listens	-7180
▁lobster	-7181
▁located	-7182
▁locking	-7183
▁lookers	-7184
▁lounges	-7185
▁lowhang	-7186
▁lunging	-7187
▁magnets	-7188
▁mammnal	-7189
▁markers	-7190
▁martina	-7191
▁masking	-7192
▁mcandre	-7193
▁meander	-7194
▁measure	-7195
▁medical	-7196
▁midjump	-7197
▁miscell	-7198
▁missing	-7199
▁$	-7200
bur	-7201
ths	-7202
▁ie	-7203
▁km	-7204
▁vn	-7205
▁yo	-7206
burg	-7207
enst	-7208
gtal	-7209
shop	-7210
▁enm	-7211
▁fas	-7212
▁jul	-7213
▁mos	-7214
▁orb	-7215
▁qui	-7216
▁rat	-7217
▁rob	-7218
▁sth	-7219
▁the	-7220
▁vir	-7221
▁von	-7222
▁wid	-7223
benst	-7224
domen	-7225
fgtal	-7226
raine	-7227
scope	-7228
using	-7229
▁beat	-7230
▁brad	-7231
▁july	-7232
▁oars	-7233
▁pate	-7234
▁peas	-7235
▁role	-7236
▁root	-7237
▁roun	-7238
▁spre	-7239
▁step	-7240
▁thei	-7241
▁virg	-7242
▁yoen	-7243
enburg	-7244
▁cards	-7245
▁coron	-7246
▁creek	-7247
▁emits	-7248
▁glare	-7249
▁grant	-7250
▁moron	-7251
▁orbit	-7252
▁playb	-7253
▁quiet	-7254
▁robin	-7255
▁share	-7256
▁treat	-7257
benstra	-7258
ingular	-7259
shopped	-7260
uenburg	-7261
▁austri	-7262
▁beaten	-7263
▁cellar	-7264
▁fasten	-7265
▁manner	-7266
▁mfgtal	-7267
▁months	-7268
▁mosque	-7269
▁pastas	-7270
▁sthort	-7271
▁stores	-7272
▁straws	-7273
▁struck	-7274
▁virgin	-7275
▁widely	-7276
▁yoenis	-7277
ctioning	-7278
▁abdomen	-7279
▁causing	-7280
▁enmclos	-7281
▁muzzled	-7282
▁mzammal	-7283
▁napping	-7284
▁needlep	-7285
▁nestled	-7286
▁neutral	-7287
▁newport	-7288
▁nudging	-7289
▁nuggets	-7290
▁numeral	-7291
▁oakland	-7292
▁olympic	-7293
▁oneeyed	-7294
▁operate	-7295
▁organic	-7296
▁overpas	-7297
▁pallets	-7298
▁paneled	-7299
ius	-7300
sou	-7301
sse	-7302
▁ax	-7303
▁dc	-7304
▁mm	-7305
bord	-7306
glev	-7307
iers	-7308
laws	-7309
leas	-7310
qsou	-7311
▁aid	-7312
▁axd	-7313
▁gel	-7314
▁jen	-7315
▁own	-7316
▁ros	-7317
▁tap	-7318
enius	-7319
fting	-7320
nered	-7321
ought	-7322
qsouv	-7323
runks	-7324
unity	-7325
▁axdz	-7326
▁bock	-7327
▁deli	-7328
▁nasa	-7329
▁romp	-7330
▁seam	-7331
aneous	-7332
asting	-7333
erring	-7334
qsouvn	-7335
trunks	-7336
▁autos	-7337
▁comic	-7338
▁hides	-7339
▁innov	-7340
▁irish	-7341
▁merry	-7342
▁pleas	-7343
▁preen	-7344
▁rosly	-7345
▁stake	-7346
▁berlin	-7347
▁crlaws	-7348
▁forces	-7349
▁genius	-7350
▁maglev	-7351
▁mixing	-7352
▁owners	-7353
▁qsouvn	-7354
▁roslyn	-7355
▁spoons	-7356
▁sticky	-7357
▁youths	-7358
cornered	-7359
▁alfredo	-7360
▁captain	-7361
▁colores	-7362
▁keybord	-7363
▁leashed	-7364
▁papered	-7365
▁patches	-7366
▁patties	-7367
▁payment	-7368
▁pedalvs	-7369
▁peeking	-7370
▁peeling	-7371
▁penalty	-7372
▁pencils	-7373
▁pickled	-7374
▁pierced	-7375
▁pinning	-7376
▁pitched	-7377
▁pitches	-7378
▁playful	-7379
▁plowing	-7380
▁plunger	-7381
▁polices	-7382
▁politic	-7383
▁pottery	-7384
▁praying	-7385
▁pretzel	-7386
▁profits	-7387
▁provide	-7388
▁prussia	-7389
▁pursued	-7390
▁pushkin	-7391
▁pyramid	-7392
▁quantum	-7393
▁quarter	-7394
▁quartet	-7395
▁raccoon	-7396
▁rafting	-7397
▁raining	-7398
▁raisins	-7399
rs	-7400
we	-7401
hot	-7402
▁hf	-7403
etop	-7404
isle	-7405
ites	-7406
onic	-7407
onis	-7408
▁dut	-7409
▁ewe	-7410
▁hfa	-7411
▁meg	-7412
▁mmm	-7413
▁mol	-7414
igers	-7415
▁bong	-7416
▁colt	-7417
▁duty	-7418
▁fora	-7419
▁june	-7420
▁lion	-7421
▁mega	-7422
▁parl	-7423
▁tram	-7424
▁twig	-7425
▁twis	-7426
inated	-7427
▁aging	-7428
▁aisle	-7429
▁birtd	-7430
▁bites	-7431
▁bongo	-7432
▁hfaas	-7433
▁lemon	-7434
▁shark	-7435
▁shorn	-7436
▁swung	-7437
▁teles	-7438
▁tucks	-7439
▁twigs	-7440
▁arrows	-7441
▁divert	-7442
▁galove	-7443
▁grains	-7444
▁hammrs	-7445
▁parlor	-7446
▁paying	-7447
▁pealed	-7448
▁ronald	-7449
▁tigers	-7450
▁viewer	-7451
▁wiping	-7452
▁blazing	-7453
▁drivers	-7454
▁harbour	-7455
▁hooping	-7456
▁molding	-7457
▁necking	-7458
▁pebbled	-7459
▁rancher	-7460
▁raspber	-7461
▁receipt	-7462
▁recline	-7463
▁regatta	-7464
▁release	-7465
▁removed	-7466
▁reserve	-7467
▁resides	-7468
▁residue	-7469
▁retired	-7470
▁reverse	-7471
▁rhubarb	-7472
▁ribbons	-7473
▁ricksha	-7474
▁roaming	-7475
▁rockies	-7476
▁rooster	-7477
▁rotonda	-7478
▁rounded	-7479
▁rowboat	-7480
▁rpacket	-7481
▁rundown	-7482
▁russell	-7483
▁salutes	-7484
▁samsung	-7485
▁sanding	-7486
▁scandal	-7487
▁scanner	-7488
▁scaring	-7489
▁scarves	-7490
▁science	-7491
▁seagull	-7492
▁seaguls	-7493
▁seasons	-7494
▁seaweed	-7495
▁serious	-7496
▁shampoo	-7497
▁shaving	-7498
▁sheared	-7499
ne	-7500
▁fu	-7501
▁ny	-7502
esan	-7503
iens	-7504
iwar	-7505
ouch	-7506
▁age	-7507
▁ate	-7508
▁fuh	-7509
▁mes	-7510
▁nyp	-7511
▁ram	-7512
▁rip	-7513
▁wan	-7514
haube	-7515
mesan	-7516
tshop	-7517
▁bale	-7518
▁crab	-7519
▁fuhy	-7520
▁lips	-7521
▁mesh	-7522
▁nypd	-7523
▁ripp	-7524
▁stom	-7525
▁tiss	-7526
urally	-7527
▁bento	-7528
▁chops	-7529
▁dials	-7530
▁disas	-7531
▁flips	-7532
▁grate	-7533
▁motif	-7534
▁pouch	-7535
▁rolls	-7536
▁tever	-7537
▁actual	-7538
▁aliens	-7539
▁barely	-7540
▁capped	-7541
▁ldarge	-7542
▁mathem	-7543
▁msical	-7544
▁thrown	-7545
▁tissue	-7546
▁antiwar	-7547
▁coating	-7548
▁coupons	-7549
▁draught	-7550
▁entrees	-7551
▁focused	-7552
▁grocers	-7553
▁hammers	-7554
▁messing	-7555
▁michael	-7556
▁middair	-7557
▁notepad	-7558
▁paddles	-7559
▁regulus	-7560
▁roughly	-7561
▁sequent	-7562
▁shepher	-7563
▁sheriff	-7564
▁shopped	-7565
▁shorter	-7566
▁sidecar	-7567
▁skewers	-7568
▁skiiers	-7569
▁slipper	-7570
▁smoking	-7571
▁sneaker	-7572
▁snowing	-7573
▁snowmen	-7574
▁soldier	-7575
▁souther	-7576
▁spaniel	-7577
▁sparrow	-7578
▁spatula	-7579
▁species	-7580
▁spilled	-7581
▁spindly	-7582
▁spokane	-7583
▁sprints	-7584
▁squares	-7585
▁stained	-7586
▁stamped	-7587
▁standup	-7588
▁steered	-7589
▁stephen	-7590
▁stocked	-7591
▁stomach	-7592
▁strange	-7593
▁strivgf	-7594
▁strucrk	-7595
▁studies	-7596
▁stylish	-7597
▁sugared	-7598
▁sunroof	-7599
14	-7600
rg	-7601
142	-7602
gas	-7603
int	-7604
▁lh	-7605
▁vr	-7606
1420	-7607
anas	-7608
inrg	-7609
mell	-7610
oint	-7611
rine	-7612
▁dre	-7613
▁lhe	-7614
14205	-7615
lands	-7616
smell	-7617
▁ding	-7618
▁goat	-7619
▁hyde	-7620
▁lace	-7621
▁ling	-7622
▁tend	-7623
▁tone	-7624
▁trek	-7625
142053	-7626
▁buggy	-7627
▁dingy	-7628
▁drier	-7629
▁endot	-7630
▁gears	-7631
▁mason	-7632
▁racks	-7633
▁regal	-7634
▁steth	-7635
▁sting	-7636
▁vegas	-7637
142053,	-7638
▁change	-7639
▁highly	-7640
▁lingus	-7641
▁nailed	-7642
▁osmell	-7643
▁potted	-7644
▁purses	-7645
▁shrine	-7646
▁siting	-7647
▁slider	-7648
▁142053,	-7649
▁airways	-7650
▁bunched	-7651
▁canning	-7652
▁comcast	-7653
▁console	-7654
▁corners	-7655
▁daniels	-7656
▁dininrg	-7657
▁flannel	-7658
▁frosted	-7659
▁general	-7660
▁mixture	-7661
▁planted	-7662
▁playbus	-7663
▁pointed	-7664
▁potluck	-7665
▁skiiing	-7666
▁smeared	-7667
▁surgery	-7668
▁swiftly	-7669
▁systems	-7670
▁tablets	-7671
▁tagging	-7672
▁takeoff	-7673
▁tasting	-7674
▁tenants	-7675
▁terrain	-7676
▁texting	-7677
▁tgrough	-7678
▁theater	-7679
▁thimble	-7680
▁thought	-7681
▁tiedyed	-7682
▁toppers	-7683
▁torches	-7684
▁tourism	-7685
▁trailed	-7686
▁travers	-7687
▁trimmed	-7688
▁tugboat	-7689
▁twisted	-7690
▁twitter	-7691
▁ukraine	-7692
▁umpires	-7693
▁unboxed	-7694
▁unclean	-7695
▁uneaten	-7696
▁upgrade	-7697
▁upwards	-7698
▁vending	-7699
dj	-7700
▁,	-7701
▁cd	-7702
▁kw	-7703
▁mp	-7704
djle	-7705
ians	-7706
▁far	-7707
▁fat	-7708
▁kwu	-7709
▁tle	-7710
▁web	-7711
aling	-7712
rates	-7713
▁club	-7714
▁file	-7715
▁fuel	-7716
▁isle	-7717
▁less	-7718
▁more	-7719
▁pint	-7720
▁requ	-7721
▁tell	-7722
▁turb	-7723
▁ugly	-7724
▁warm	-7725
mering	-7726
ribing	-7727
▁draft	-7728
▁engie	-7729
▁pulpy	-7730
▁drying	-7731
▁facade	-7732
▁hiding	-7733
▁manned	-7734
▁patron	-7735
▁rowers	-7736
▁struts	-7737
▁unmake	-7738
▁vacant	-7739
▁cheesey	-7740
▁oconnor	-7741
▁patrons	-7742
▁readies	-7743
▁related	-7744
▁require	-7745
▁seattle	-7746
▁turbans	-7747
▁valance	-7748
▁vendors	-7749
▁vessels	-7750
▁vibrant	-7751
▁violate	-7752
▁visited	-7753
▁walkout	-7754
▁warhawk	-7755
▁warming	-7756
▁washers	-7757
▁watvewr	-7758
▁welcome	-7759
▁western	-7760
▁wheeled	-7761
▁wheelie	-7762
▁whipped	-7763
▁whistle	-7764
▁whopper	-7765
▁widexly	-7766
▁wiimote	-7767
▁william	-7768
▁wilting	-7769
▁winning	-7770
▁wrestle	-7771
▁wrought	-7772
▁wunning	-7773
▁yankees	-7774
▁zombies	-7775
albandyan	-7776
inational	-7777
isteronic	-7778
omeranian	-7779
orangeand	-7780
ournalism	-7781
president	-7782
resdsmedf	-7783
scription	-7784
▁addition	-7785
▁adorable	-7786
▁advanced	-7787
▁afghanis	-7788
▁alleyway	-7789
▁animated	-7790
▁applying	-7791
▁approach	-7792
▁apricots	-7793
▁aquarium	-7794
▁argument	-7795
▁arriving	-7796
▁articles	-7797
▁atlantic	-7798
▁austrian	-7799
ano	-7800
ito	-7801
jan	-7802
mly	-7803
▁tp	-7804
▁tx	-7805
bles	-7806
▁bce	-7807
▁kan	-7808
▁ken	-7809
▁sts	-7810
▁syn	-7811
▁txo	-7812
▁yet	-7813
aring	-7814
▁anid	-7815
▁bunt	-7816
▁come	-7817
▁gone	-7818
▁hush	-7819
▁nels	-7820
▁salt	-7821
▁sync	-7822
ioning	-7823
▁astro	-7824
▁avoid	-7825
▁beets	-7826
▁bushy	-7827
▁herbs	-7828
▁jeter	-7829
▁kanji	-7830
▁laced	-7831
▁ladle	-7832
▁liner	-7833
▁loads	-7834
▁milky	-7835
▁obama	-7836
▁piano	-7837
▁quito	-7838
▁roped	-7839
▁silos	-7840
▁theme	-7841
▁tiara	-7842
oration	-7843
▁asiana	-7844
▁bricks	-7845
▁dollar	-7846
▁gallon	-7847
▁grimly	-7848
▁patchy	-7849
▁pearls	-7850
▁samuel	-7851
▁scoops	-7852
▁source	-7853
▁stamen	-7854
▁trajan	-7855
▁waiter	-7856
▁cheeses	-7857
▁dumping	-7858
▁equally	-7859
▁leaking	-7860
▁logging	-7861
▁product	-7862
▁protein	-7863
▁remoter	-7864
▁seating	-7865
▁shelter	-7866
▁soaring	-7867
▁sprayed	-7868
▁touring	-7869
▁astrojet	-7870
▁awaiting	-7871
▁backback	-7872
▁backyard	-7873
▁balanced	-7874
▁balloons	-7875
▁ballston	-7876
▁bannanas	-7877
▁barbecue	-7878
▁barbeque	-7879
▁barriers	-7880
▁battered	-7881
▁bleacher	-7882
▁blizzard	-7883
▁blocking	-7884
▁blooming	-7885
▁bordered	-7886
▁bristles	-7887
▁bristrol	-7888
▁broadway	-7889
▁brocolli	-7890
▁brownies	-7891
▁browsing	-7892
▁brunette	-7893
▁budapest	-7894
▁buidling	-7895
▁bullhorn	-7896
▁burgundy	-7897
▁cabbages	-7898
▁calculus	-7899
).	-7900
bq	-7901
fy	-7902
▁(	-7903
▁)	-7904
▁-	-7905
olt	-7906
▁hd	-7907
▁bbq	-7908
▁rib	-7909
▁rod	-7910
▁wok	-7911
acing	-7912
▁bolt	-7913
▁mile	-7914
▁rams	-7915
▁roti	-7916
igence	-7917
scents	-7918
vorous	-7919
▁acers	-7920
▁alike	-7921
▁bllow	-7922
▁check	-7923
▁chest	-7924
▁dance	-7925
▁dated	-7926
▁dodge	-7927
▁gates	-7928
▁goofy	-7929
▁latte	-7930
▁paris	-7931
▁prior	-7932
▁punch	-7933
▁sales	-7934
▁stems	-7935
college	-7936
▁danube	-7937
▁pencil	-7938
▁shells	-7939
▁singin	-7940
▁strong	-7941
▁tablez	-7942
▁though	-7943
▁brussel	-7944
▁capital	-7945
▁carryon	-7946
▁casting	-7947
▁clearly	-7948
▁floured	-7949
▁lanyard	-7950
▁lattice	-7951
▁	-7952
e	-7953
a	-7954
r	-7955
t	-7956
i	-7957
n	-7958
o	-7959
s	-7960
l	-7961
g	-7962
d	-7963
c	-7964
p	-7965
b	-7966
h	-7967
u	-7968
w	-7969
m	-7970
k	-7971
f	-7972
y	-7973
v	-7974
z	-7975
x	-7976
.	-7977
j	-7978
,	-7979
q	-7980
"	-7981
-	-7982
'	-7983
)	-7984
&	-7985
/	-7986
$	-7987
(	-7988
0	-7989
1	-7990
2	-7991
3	-7992
4	-7993
5	-7994
:	-7995
ö	-7996
